{
  "version": "1.0",
  "truncation": {
    "direction": "Right",
    "max_length": 128,
    "strategy": "LongestFirst",
    "stride": 0
  },
  "padding": null,
  "added_tokens": [
    {
      "id": 0,
      "content": "[PAD]",
      "single_word": false,
      "lstrip": false,
      "rstrip": false,
      "normalized": false,
      "special": true
    },
    {
      "id": 1,
      "content": "[UNK]",
      "single_word": false,
      "lstrip": false,
      "rstrip": false,
      "normalized": false,
      "special": true
    },
    {
      "id": 2,
      "content": "[CLS]",
      "single_word": false,
      "lstrip": false,
      "rstrip": false,
      "normalized": false,
      "special": true
    },
    {
      "id": 3,
      "content": "[SEP]",
      "single_word": false,
      "lstrip": false,
      "rstrip": false,
      "normalized": false,
      "special": true
    },
    {
      "id": 4,
      "content": "[MASK]",
      "single_word": false,
      "lstrip": false,
      "rstrip": false,
      "normalized": false,
      "special": true
    }
  ],
  "normalizer": {
    "type": "BertNormalizer",
    "clean_text": true,
    "handle_chinese_chars": true,
    "strip_accents": null,
    "lowercase": true
  },
  "pre_tokenizer": {
    "type": "BertPreTokenizer"
  },
  "post_processor": {
    "type": "TemplateProcessing",
    "single": [
      {
        "SpecialToken": {
          "id": "[CLS]",
          "type_id": 0
        }
      },
      {
        "Sequence": {
          "id": "A",
          "type_id": 0
        }
      },
      {
        "SpecialToken": {
          "id": "[SEP]",
          "type_id": 0
        }
      }
    ],
    "pair": [
      {
        "SpecialToken": {
          "id": "[CLS]",
          "type_id": 0
        }
      },
      {
        "Sequence": {
          "id": "A",
          "type_id": 0
        }
      },
      {
        "SpecialToken": {
          "id": "[SEP]",
          "type_id": 0
        }
      },
      {
        "Sequence": {
          "id": "B",
          "type_id": 1
        }
      },
      {
        "SpecialToken": {
          "id": "[SEP]",
          "type_id": 1
        }
      }
    ],
    "special_tokens": {
      "[CLS]": {
        "id": "[CLS]",
        "ids": [
          2
        ],
        "tokens": [
          "[CLS]"
        ]
      },
      "[SEP]": {
        "id": "[SEP]",
        "ids": [
          3
        ],
        "tokens": [
          "[SEP]"
        ]
      }
    }
  },
  "decoder": {
    "type": "WordPiece",
    "prefix": "##",
    "cleanup": true
  },
  "model": {
    "type": "WordPiece",
    "unk_token": "[UNK]",
    "continuing_subword_prefix": "##",
    "max_input_chars_per_word": 100,
    "vocab": {
      "[PAD]": 0,
      "[UNK]": 1,
      "[CLS]": 2,
      "[SEP]": 3,
      "[MASK]": 4,
      "!": 5,
      "\"": 6,
      "#": 7,
      "$": 8,
      "%": 9,
      "&": 10,
      "'": 11,
      "(": 12,
      ")": 13,
      "+": 14,
      ",": 15,
      "-": 16,
      ".": 17,
      "/": 18,
      "0": 19,
      "1": 20,
      "2": 21,
      "3": 22,
      "4": 23,
      "5": 24,
      "6": 25,
      "7": 26,
      "8": 27,
      "9": 28,
      ":": 29,
      ";": 30,
      "?": 31,
      "[": 32,
      "\\": 33,
      "]": 34,
      "^": 35,
      "_": 36,
      "a": 37,
      "b": 38,
      "c": 39,
      "d": 40,
      "e": 41,
      "f": 42,
      "g": 43,
      "h": 44,
      "i": 45,
      "j": 46,
      "k": 47,
      "l": 48,
      "m": 49,
      "n": 50,
      "o": 51,
      "p": 52,
      "q": 53,
      "r": 54,
      "s": 55,
      "t": 56,
      "u": 57,
      "v": 58,
      "w": 59,
      "x": 60,
      "y": 61,
      "z": 62,
      "##o": 63,
      "##n": 64,
      "##g": 65,
      "##u": 66,
      "##e": 67,
      "##a": 68,
      "##r": 69,
      "##i": 70,
      "##m": 71,
      "##l": 72,
      "##s": 73,
      "##y": 74,
      "##f": 75,
      "##c": 76,
      "##t": 77,
      "##h": 78,
      "##b": 79,
      "##d": 80,
      "##j": 81,
      "##v": 82,
      "##z": 83,
      "##x": 84,
      "##p": 85,
      "##k": 86,
      "##0": 87,
      "##w": 88,
      "##8": 89,
      "##5": 90,
      "##6": 91,
      "##9": 92,
      "##7": 93,
      "##3": 94,
      "##1": 95,
      "##q": 96,
      "##2": 97,
      "##4": 98,
      "##he": 99,
      "the": 100,
      "##er": 101,
      "##in": 102,
      "##nd": 103,
      "##on": 104,
      "##es": 105,
      "##an": 106,
      "##or": 107,
      "to": 108,
      "##is": 109,
      "##at": 110,
      "##ar": 111,
      "##en": 112,
      "##ed": 113,
      "and": 114,
      "##ing": 115,
      "of": 116,
      "in": 117,
      "##al": 118,
      "##it": 119,
      "##re": 120,
      "##il": 121,
      "##ic": 122,
      "##om": 123,
      "##ou": 124,
      "##ion": 125,
      "##as": 126,
      "is": 127,
      "##et": 128,
      "##el": 129,
      "##ct": 130,
      "th": 131,
      "his": 132,
      "##ut": 133,
      "##ent": 134,
      "##ac": 135,
      "##st": 136,
      "##ol": 137,
      "on": 138,
      "##ur": 139,
      "he": 140,
      "##im": 141,
      "wh": 142,
      "##ir": 143,
      "##ow": 144,
      "##am": 145,
      "##ot": 146,
      "##le": 147,
      "an": 148,
      "st": 149,
      "be": 150,
      "for": 151,
      "##ad": 152,
      "##ri": 153,
      "wit": 154,
      "##ly": 155,
      "##ter": 156,
      "##ve": 157,
      "with": 158,
      "##ction": 159,
      "##id": 160,
      "##ver": 161,
      "##ig": 162,
      "##ill": 163,
      "as": 164,
      "de": 165,
      "action": 166,
      "re": 167,
      "##ay": 168,
      "##her": 169,
      "fr": 170,
      "##ap": 171,
      "who": 172,
      "##ers": 173,
      "##ak": 174,
      "by": 175,
      "that": 176,
      "al": 177,
      "##un": 178,
      "##ce": 179,
      "tr": 180,
      "pr": 181,
      "##op": 182,
      "se": 183,
      "ch": 184,
      "whe": 185,
      "##os": 186,
      "##ag": 187,
      "##and": 188,
      "##ts": 189,
      "##ain": 190,
      "##ul": 191,
      "##est": 192,
      "##us": 193,
      "they": 194,
      "from": 195,
      "him": 196,
      "##ack": 197,
      "##ch": 198,
      "le": 199,
      "at": 200,
      "##igh": 201,
      "ne": 202,
      "ar": 203,
      "##ld": 204,
      "##ess": 205,
      "are": 206,
      "##ind": 207,
      "her": 208,
      "##art": 209,
      "##em": 210,
      "con": 211,
      "but": 212,
      "##ation": 213,
      "##if": 214,
      "com": 215,
      "when": 216,
      "##ang": 217,
      "##ous": 218,
      "their": 219,
      "##od": 220,
      "pl": 221,
      "br": 222,
      "has": 223,
      "ag": 224,
      "sh": 225,
      "lo": 226,
      "##ist": 227,
      "##ant": 228,
      "##end": 229,
      "##ie": 230,
      "##iv": 231,
      "un": 232,
      "wor": 233,
      "##ug": 234,
      "##ust": 235,
      "##ate": 236,
      "##all": 237,
      "##oun": 238,
      "en": 239,
      "su": 240,
      "##ob": 241,
      "out": 242,
      "man": 243,
      "cr": 244,
      "af": 245,
      "##av": 246,
      "it": 247,
      "go": 248,
      "ex": 249,
      "##ave": 250,
      "int": 251,
      "##ect": 252,
      "find": 253,
      "##ive": 254,
      "sp": 255,
      "##ab": 256,
      "##um": 257,
      "##ong": 258,
      "##th": 259,
      "up": 260,
      "##ity": 261,
      "##ome": 262,
      "##ear": 263,
      "war": 264,
      "##per": 265,
      "##ight": 266,
      "one": 267,
      "so": 268,
      "after": 269,
      "gr": 270,
      "##ell": 271,
      "##one": 272,
      "##ies": 273,
      "##ice": 274,
      "##ian": 275,
      "dr": 276,
      "##ore": 277,
      "kill": 278,
      "##ace": 279,
      "##ard": 280,
      "##co": 281,
      "##own": 282,
      "##se": 283,
      "##ife": 284,
      "into": 285,
      "dis": 286,
      "them": 287,
      "##ich": 288,
      "te": 289,
      "ab": 290,
      "ev": 291,
      "tak": 292,
      "##ime": 293,
      "get": 294,
      "##oy": 295,
      "all": 296,
      "she": 297,
      "new": 298,
      "##mer": 299,
      "or": 300,
      "##ast": 301,
      "##other": 302,
      "me": 303,
      "##oc": 304,
      "##ure": 305,
      "bec": 306,
      "##ue": 307,
      "##ile": 308,
      "##ip": 309,
      "##ge": 310,
      "this": 311,
      "##wo": 312,
      "##ass": 313,
      "##der": 314,
      "pol": 315,
      "will": 316,
      "##riend": 317,
      "off": 318,
      "res": 319,
      "##ial": 320,
      "##tr": 321,
      "do": 322,
      "##urn": 323,
      "mo": 324,
      "##ans": 325,
      "##ia": 326,
      "##wn": 327,
      "##our": 328,
      "bl": 329,
      "can": 330,
      "jo": 331,
      "two": 332,
      "world": 333,
      "##pt": 334,
      "hel": 335,
      "##ks": 336,
      "##ath": 337,
      "kn": 338,
      "##age": 339,
      "##ort": 340,
      "##ide": 341,
      "##ment": 342,
      "car": 343,
      "##iz": 344,
      "ass": 345,
      "have": 346,
      "##ious": 347,
      "##man": 348,
      "not": 349,
      "youn": 350,
      "##pl": 351,
      "##cover": 352,
      "young": 353,
      "##ud": 354,
      "must": 355,
      "cl": 356,
      "##ory": 357,
      "ad": 358,
      "##reat": 359,
      "again": 360,
      "##ire": 361,
      "##cc": 362,
      "inv": 363,
      "##out": 364,
      "##gh": 365,
      "##ok": 366,
      "##oss": 367,
      "att": 368,
      "year": 369,
      "##iss": 370,
      "##old": 371,
      "sc": 372,
      "life": 373,
      "##ally": 374,
      "only": 375,
      "was": 376,
      "##ine": 377,
      "##ach": 378,
      "##ary": 379,
      "ter": 380,
      "##ick": 381,
      "##sel": 382,
      "back": 383,
      "##ish": 384,
      "##ves": 385,
      "##ough": 386,
      "lead": 387,
      "##nder": 388,
      "friend": 389,
      "help": 390,
      "plan": 391,
      "mur": 392,
      "##uc": 393,
      "##aw": 394,
      "##att": 395,
      "##ound": 396,
      "which": 397,
      "##ik": 398,
      "bo": 399,
      "##ther": 400,
      "##app": 401,
      "pro": 402,
      "sur": 403,
      "time": 404,
      "##ame": 405,
      "where": 406,
      "sec": 407,
      "while": 408,
      "mar": 409,
      "police": 410,
      "ret": 411,
      "dec": 412,
      "##ord": 413,
      "##ree": 414,
      "pow": 415,
      "cap": 416,
      "##oup": 417,
      "arm": 418,
      "gang": 419,
      "bet": 420,
      "##ry": 421,
      "under": 422,
      "##pp": 423,
      "##ance": 424,
      "other": 425,
      "over": 426,
      "pe": 427,
      "##ru": 428,
      "against": 429,
      "##ail": 430,
      "miss": 431,
      "##ep": 432,
      "##ber": 433,
      "##qu": 434,
      "im": 435,
      "team": 436,
      "##ret": 437,
      "tri": 438,
      "col": 439,
      "em": 440,
      "##act": 441,
      "ma": 442,
      "##ather": 443,
      "##ugh": 444,
      "we": 445,
      "rob": 446,
      "way": 447,
      "##ins": 448,
      "##ens": 449,
      "##ster": 450,
      "cop": 451,
      "es": 452,
      "now": 453,
      "##inal": 454,
      "some": 455,
      "##og": 456,
      "##ild": 457,
      "##ets": 458,
      "mak": 459,
      "how": 460,
      "str": 461,
      "##ence": 462,
      "##ful": 463,
      "##ict": 464,
      "part": 465,
      "##ely": 466,
      "##irl": 467,
      "##ff": 468,
      "city": 469,
      "##we": 470,
      "##ison": 471,
      "old": 472,
      "##tain": 473,
      "##ble": 474,
      "##ose": 475,
      "##ives": 476,
      "des": 477,
      "us": 478,
      "qu": 479,
      "murder": 480,
      "fight": 481,
      "batt": 482,
      "son": 483,
      "agent": 484,
      "brother": 485,
      "co": 486,
      "comm": 487,
      "group": 488,
      "about": 489,
      "##ants": 490,
      "fam": 491,
      "##ident": 492,
      "amer": 493,
      "thr": 494,
      "americ": 495,
      "been": 496,
      "##ign": 497,
      "himsel": 498,
      "himself": 499,
      "day": 500,
      "##les": 501,
      "ser": 502,
      "##ey": 503,
      "there": 504,
      "ever": 505,
      "##ank": 506,
      "##ated": 507,
      "offic": 508,
      "terr": 509,
      "secret": 510,
      "dead": 511,
      "end": 512,
      "##ates": 513,
      "down": 514,
      "##oman": 515,
      "story": 516,
      "esc": 517,
      "father": 518,
      "##ily": 519,
      "am": 520,
      "pre": 521,
      "det": 522,
      "finds": 523,
      "own": 524,
      "death": 525,
      "hun": 526,
      "hum": 527,
      "girl": 528,
      "ind": 529,
      "##ors": 530,
      "##ical": 531,
      "comp": 532,
      "discover": 533,
      "years": 534,
      "no": 535,
      "##ever": 536,
      "##ces": 537,
      "##amp": 538,
      "kid": 539,
      "rel": 540,
      "##augh": 541,
      "being": 542,
      "call": 543,
      "##ite": 544,
      "##oll": 545,
      "bef": 546,
      "power": 547,
      "##ood": 548,
      "turn": 549,
      "vi": 550,
      "##orm": 551,
      "work": 552,
      "men": 553,
      "sm": 554,
      "dest": 555,
      "##ase": 556,
      "##get": 557,
      "##uring": 558,
      "##ows": 559,
      "##vent": 560,
      "##ings": 561,
      "try": 562,
      "stop": 563,
      "take": 564,
      "##ween": 565,
      "##ade": 566,
      "between": 567,
      "##ost": 568,
      "##ven": 569,
      "real": 570,
      "loc": 571,
      "becom": 572,
      "##ists": 573,
      "what": 574,
      "evil": 575,
      "set": 576,
      "mission": 577,
      "el": 578,
      "##amed": 579,
      "beg": 580,
      "surv": 581,
      "escap": 582,
      "##ese": 583,
      "##arth": 584,
      "before": 585,
      "par": 586,
      "takes": 587,
      "##land": 588,
      "joh": 589,
      "gu": 590,
      "##az": 591,
      "gen": 592,
      "then": 593,
      "super": 594,
      "19": 595,
      "##ient": 596,
      "##ced": 597,
      "##irst": 598,
      "##ting": 599,
      "cor": 600,
      "during": 601,
      "run": 602,
      "##ater": 603,
      "##ould": 604,
      "see": 605,
      "##ec": 606,
      "terror": 607,
      "dev": 608,
      "##ock": 609,
      "however": 610,
      "ra": 611,
      "rec": 612,
      "crim": 613,
      "soon": 614,
      "jack": 615,
      "##so": 616,
      "##aster": 617,
      "##arn": 618,
      "love": 619,
      "drug": 620,
      "becomes": 621,
      "john": 622,
      "also": 623,
      "##anger": 624,
      "##ons": 625,
      "##ise": 626,
      "##oth": 627,
      "##aus": 628,
      "more": 629,
      "three": 630,
      "##ides": 631,
      "assass": 632,
      "earth": 633,
      "battle": 634,
      "coun": 635,
      "high": 636,
      "woman": 637,
      "##sh": 638,
      "family": 639,
      "prot": 640,
      "prison": 641,
      "first": 642,
      "##pect": 643,
      "fe": 644,
      "##ft": 645,
      "acc": 646,
      "sent": 647,
      "##00": 648,
      "return": 649,
      "mart": 650,
      "sw": 651,
      "star": 652,
      "chin": 653,
      "ke": 654,
      "my": 655,
      "every": 656,
      "king": 657,
      "##ai": 658,
      "play": 659,
      "through": 660,
      "wife": 661,
      "def": 662,
      "##able": 663,
      "killed": 664,
      "mov": 665,
      "criminal": 666,
      "ac": 667,
      "sk": 668,
      "army": 669,
      "har": 670,
      "##gan": 671,
      "##ash": 672,
      "head": 673,
      "named": 674,
      "##pr": 675,
      "town": 676,
      "another": 677,
      "##ull": 678,
      "gets": 679,
      "cre": 680,
      "##ner": 681,
      "##ited": 682,
      "ste": 683,
      "##ike": 684,
      "fut": 685,
      "sl": 686,
      "officer": 687,
      "##ters": 688,
      "train": 689,
      "##ople": 690,
      "cont": 691,
      "dri": 692,
      "##ool": 693,
      "##ty": 694,
      "##way": 695,
      "any": 696,
      "##idd": 697,
      "boy": 698,
      "fall": 699,
      "##ased": 700,
      "##els": 701,
      "former": 702,
      "become": 703,
      "char": 704,
      "goes": 705,
      "assassin": 706,
      "its": 707,
      "contr": 708,
      "order": 709,
      "resc": 710,
      "most": 711,
      "fil": 712,
      "inc": 713,
      "attem": 714,
      "people": 715,
      "ang": 716,
      "##vern": 717,
      "fl": 718,
      "sold": 719,
      "##ues": 720,
      "##hes": 721,
      "inf": 722,
      "inter": 723,
      "##ale": 724,
      "##estig": 725,
      "crime": 726,
      "govern": 727,
      "hand": 728,
      "sch": 729,
      "##roy": 730,
      "##orn": 731,
      "hero": 732,
      "min": 733,
      "##oney": 734,
      "##uck": 735,
      "##less": 736,
      "learn": 737,
      "american": 738,
      "just": 739,
      "##ro": 740,
      "investig": 741,
      "attack": 742,
      "destroy": 743,
      "pers": 744,
      "##ating": 745,
      "trav": 746,
      "does": 747,
      "film": 748,
      "wants": 749,
      "known": 750,
      "mon": 751,
      "##ody": 752,
      "land": 753,
      "called": 754,
      "##ugg": 755,
      "##ier": 756,
      "##als": 757,
      "##ents": 758,
      "pres": 759,
      "movie": 760,
      "may": 761,
      "save": 762,
      "##ted": 763,
      "##bl": 764,
      "protect": 765,
      "money": 766,
      "##ron": 767,
      "ins": 768,
      "##reak": 769,
      "##ung": 770,
      "bel": 771,
      "danger": 772,
      "if": 773,
      "myster": 774,
      "home": 775,
      "trans": 776,
      "brit": 777,
      "even": 778,
      "make": 779,
      "human": 780,
      "master": 781,
      "##ah": 782,
      "##air": 783,
      "##venge": 784,
      "both": 785,
      "decides": 786,
      "kidn": 787,
      "pri": 788,
      "vill": 789,
      "toget": 790,
      "##ilit": 791,
      "capt": 792,
      "##aughter": 793,
      "government": 794,
      "together": 795,
      "##ark": 796,
      "##ult": 797,
      "tries": 798,
      "##oot": 799,
      "##ved": 800,
      "##its": 801,
      "advent": 802,
      "future": 803,
      "bus": 804,
      "##gr": 805,
      "##ery": 806,
      "rem": 807,
      "planet": 808,
      "martial": 809,
      "app": 810,
      "bu": 811,
      "##omb": 812,
      "local": 813,
      "school": 814,
      "each": 815,
      "lives": 816,
      "##aut": 817,
      "##rupt": 818,
      "surviv": 819,
      "cent": 820,
      "mem": 821,
      "deal": 822,
      "child": 823,
      "long": 824,
      "##ures": 825,
      "##lear": 826,
      "ali": 827,
      "detect": 828,
      "daughter": 829,
      "last": 830,
      "##hed": 831,
      "than": 832,
      "friends": 833,
      "act": 834,
      "great": 835,
      "sin": 836,
      "##eng": 837,
      "##uth": 838,
      "escape": 839,
      "gun": 840,
      "jap": 841,
      "##ork": 842,
      "threat": 843,
      "sub": 844,
      "leader": 845,
      "captain": 846,
      "##ause": 847,
      "japan": 848,
      "##iet": 849,
      "trying": 850,
      "id": 851,
      "per": 852,
      "race": 853,
      "##ny": 854,
      "##ning": 855,
      "##friend": 856,
      "black": 857,
      "small": 858,
      "best": 859,
      "los": 860,
      "sy": 861,
      "##ake": 862,
      "along": 863,
      "bond": 864,
      "rescue": 865,
      "pur": 866,
      "sam": 867,
      "##ra": 868,
      "##iver": 869,
      "##ible": 870,
      "##hing": 871,
      "##ane": 872,
      "##ister": 873,
      "forces": 874,
      "conf": 875,
      "##apped": 876,
      "keep": 877,
      "ph": 878,
      "##ric": 879,
      "##ately": 880,
      "eng": 881,
      "mysterious": 882,
      "job": 883,
      "cons": 884,
      "enem": 885,
      "##try": 886,
      "begins": 887,
      "crew": 888,
      "bar": 889,
      "##ness": 890,
      "##ions": 891,
      "island": 892,
      "beh": 893,
      "force": 894,
      "ship": 895,
      "look": 896,
      "##ship": 897,
      "sus": 898,
      "##ied": 899,
      "##ere": 900,
      "seem": 901,
      "leg": 902,
      "viol": 903,
      "british": 904,
      "four": 905,
      "well": 906,
      "##ling": 907,
      "##ator": 908,
      "arri": 909,
      "mean": 910,
      "##ecial": 911,
      "person": 912,
      "foll": 913,
      "law": 914,
      "##ames": 915,
      "##ley": 916,
      "sear": 917,
      "art": 918,
      "scient": 919,
      "happ": 920,
      "mob": 921,
      "put": 922,
      "once": 923,
      "stre": 924,
      "##ourn": 925,
      "attempt": 926,
      "air": 927,
      "fin": 928,
      "later": 929,
      "##ix": 930,
      "##iness": 931,
      "##ired": 932,
      "##uss": 933,
      "##ouse": 934,
      "good": 935,
      "country": 936,
      "detective": 937,
      "milit": 938,
      "po": 939,
      "pass": 940,
      "ro": 941,
      "##ke": 942,
      "comes": 943,
      "exper": 944,
      "boss": 945,
      "york": 946,
      "##su": 947,
      "##han": 948,
      "##king": 949,
      "##aving": 950,
      "meets": 951,
      "behind": 952,
      "big": 953,
      "creat": 954,
      "figh": 955,
      "##min": 956,
      "##ving": 957,
      "##atch": 958,
      "revenge": 959,
      "conv": 960,
      "know": 961,
      "gener": 962,
      "sing": 963,
      "sou": 964,
      "ul": 965,
      "want": 966,
      "##ert": 967,
      "plot": 968,
      "band": 969,
      "ger": 970,
      "night": 971,
      "pet": 972,
      "##bi": 973,
      "##port": 974,
      "##itt": 975,
      "##ole": 976,
      "place": 977,
      "warri": 978,
      "command": 979,
      "start": 980,
      "blood": 981,
      "prof": 982,
      "sa": 983,
      "tell": 984,
      "##anc": 985,
      "assign": 986,
      "girlfriend": 987,
      "discovers": 988,
      "corrupt": 989,
      "ap": 990,
      "che": 991,
      "ed": 992,
      "like": 993,
      "##inc": 994,
      "true": 995,
      "##ange": 996,
      "##thing": 997,
      "killer": 998,
      "because": 999,
      "deadly": 1000,
      "fu": 1001,
      "wr": 1002,
      "were": 1003,
      "##iving": 1004,
      "bank": 1005,
      "tre": 1006,
      "win": 1007,
      "##ond": 1008,
      "##iers": 1009,
      "reb": 1010,
      "weap": 1011,
      "powerful": 1012,
      "search": 1013,
      "game": 1014,
      "hit": 1015,
      "##eg": 1016,
      "##red": 1017,
      "##iam": 1018,
      "beaut": 1019,
      "whose": 1020,
      "##ief": 1021,
      "polit": 1022,
      "business": 1023,
      "break": 1024,
      "hop": 1025,
      "tar": 1026,
      "would": 1027,
      "##ask": 1028,
      "join": 1029,
      "makes": 1030,
      "control": 1031,
      "oper": 1032,
      "##ition": 1033,
      "indian": 1034,
      "travel": 1035,
      "host": 1036,
      "none": 1037,
      "ob": 1038,
      "##fer": 1039,
      "##ject": 1040,
      "dem": 1041,
      "arr": 1042,
      "compl": 1043,
      "themsel": 1044,
      "peace": 1045,
      "soldiers": 1046,
      "themselves": 1047,
      "ii": 1048,
      "led": 1049,
      "pil": 1050,
      "##uch": 1051,
      "##ually": 1052,
      "##ton": 1053,
      "##bers": 1054,
      "##jay": 1055,
      "near": 1056,
      "come": 1057,
      "special": 1058,
      "invol": 1059,
      "president": 1060,
      "far": 1061,
      "mag": 1062,
      "russ": 1063,
      "##ward": 1064,
      "##olog": 1065,
      "##ury": 1066,
      "forced": 1067,
      "arts": 1068,
      "##ations": 1069,
      "organ": 1070,
      "kong": 1071,
      "##ys": 1072,
      "##are": 1073,
      "dep": 1074,
      "chr": 1075,
      "colle": 1076,
      "dangerous": 1077,
      "military": 1078,
      "god": 1079,
      "hong": 1080,
      "lord": 1081,
      "mach": 1082,
      "rac": 1083,
      "vir": 1084,
      "##tim": 1085,
      "##wh": 1086,
      "##ines": 1087,
      "supp": 1088,
      "leads": 1089,
      "bri": 1090,
      "hard": 1091,
      "met": 1092,
      "mill": 1093,
      "vamp": 1094,
      "inst": 1095,
      "form": 1096,
      "##aves": 1097,
      "pilot": 1098,
      "based": 1099,
      "journ": 1100,
      "rest": 1101,
      "rich": 1102,
      "top": 1103,
      "##ires": 1104,
      "space": 1105,
      "drag": 1106,
      "bomb": 1107,
      "past": 1108,
      "##lem": 1109,
      "stud": 1110,
      "reg": 1111,
      "bring": 1112,
      "brothers": 1113,
      "fire": 1114,
      "##ub": 1115,
      "##ren": 1116,
      "##lud": 1117,
      "##ench": 1118,
      "##ured": 1119,
      "send": 1120,
      "expl": 1121,
      "enemy": 1122,
      "ultim": 1123,
      "gre": 1124,
      "james": 1125,
      "same": 1126,
      "very": 1127,
      "##uct": 1128,
      "##til": 1129,
      "##por": 1130,
      "##ages": 1131,
      "around": 1132,
      "undercover": 1133,
      "maj": 1134,
      "accident": 1135,
      "chinese": 1136,
      "##while": 1137,
      "dre": 1138,
      "face": 1139,
      "mother": 1140,
      "##son": 1141,
      "##ouble": 1142,
      "##elf": 1143,
      "prob": 1144,
      "conn": 1145,
      "many": 1146,
      "##ization": 1147,
      "working": 1148,
      "angel": 1149,
      "major": 1150,
      "ben": 1151,
      "body": 1152,
      "fbi": 1153,
      "mer": 1154,
      "vis": 1155,
      "vict": 1156,
      "##led": 1157,
      "##ker": 1158,
      "##aged": 1159,
      "show": 1160,
      "succ": 1161,
      "cops": 1162,
      "fighting": 1163,
      "returns": 1164,
      "meanwhile": 1165,
      "cour": 1166,
      "don": 1167,
      "free": 1168,
      "had": 1169,
      "je": 1170,
      "mut": 1171,
      "nor": 1172,
      "##ib": 1173,
      "too": 1174,
      "##ically": 1175,
      "##ady": 1176,
      "left": 1177,
      "need": 1178,
      "going": 1179,
      "legend": 1180,
      "mat": 1181,
      "mot": 1182,
      "##yn": 1183,
      "##ones": 1184,
      "##ities": 1185,
      "killing": 1186,
      "emb": 1187,
      "america": 1188,
      "days": 1189,
      "terrorist": 1190,
      "terrorists": 1191,
      "could": 1192,
      "sol": 1193,
      "side": 1194,
      "##ross": 1195,
      "##ph": 1196,
      "anim": 1197,
      "##iful": 1198,
      "lost": 1199,
      "until": 1200,
      "enc": 1201,
      "enter": 1202,
      "upon": 1203,
      "china": 1204,
      "includ": 1205,
      "belie": 1206,
      "looking": 1207,
      "beautiful": 1208,
      "success": 1209,
      "away": 1210,
      "la": 1211,
      "nuc": 1212,
      "##iel": 1213,
      "##ened": 1214,
      "ent": 1215,
      "robot": 1216,
      "robber": 1217,
      "compan": 1218,
      "realiz": 1219,
      "criminals": 1220,
      "nuclear": 1221,
      "bad": 1222,
      "case": 1223,
      "gold": 1224,
      "red": 1225,
      "rom": 1226,
      "tal": 1227,
      "##ection": 1228,
      "##cy": 1229,
      "things": 1230,
      "##cept": 1231,
      "plans": 1232,
      "##istic": 1233,
      "rele": 1234,
      "fac": 1235,
      "found": 1236,
      "final": 1237,
      "living": 1238,
      "##oo": 1239,
      "##pts": 1240,
      "##alth": 1241,
      "stand": 1242,
      "imm": 1243,
      "using": 1244,
      "viet": 1245,
      "recru": 1246,
      "sword": 1247,
      "falls": 1248,
      "adventure": 1249,
      "profess": 1250,
      "gl": 1251,
      "lar": 1252,
      "sn": 1253,
      "##sy": 1254,
      "##form": 1255,
      "##cle": 1256,
      "##omet": 1257,
      "##ently": 1258,
      "shoot": 1259,
      "##ought": 1260,
      "learns": 1261,
      "japanese": 1262,
      "tells": 1263,
      "op": 1264,
      "sim": 1265,
      "##oid": 1266,
      "##nam": 1267,
      "##bo": 1268,
      "##ears": 1269,
      "colon": 1270,
      "strugg": 1271,
      "raj": 1272,
      "kidnapped": 1273,
      "general": 1274,
      "german": 1275,
      "20": 1276,
      "ele": 1277,
      "mor": 1278,
      "##ying": 1279,
      "ash": 1280,
      "##unt": 1281,
      "##ular": 1282,
      "care": 1283,
      "dif": 1284,
      "house": 1285,
      "##xt": 1286,
      "##ked": 1287,
      "##ith": 1288,
      "united": 1289,
      "powers": 1290,
      "##aught": 1291,
      "street": 1292,
      "vietnam": 1293,
      "del": 1294,
      "dark": 1295,
      "sister": 1296,
      "##ual": 1297,
      "##ael": 1298,
      "##pir": 1299,
      "##ional": 1300,
      "still": 1301,
      "ref": 1302,
      "##ival": 1303,
      "##tra": 1304,
      "max": 1305,
      "across": 1306,
      "contin": 1307,
      "alien": 1308,
      "ident": 1309,
      "south": 1310,
      "russian": 1311,
      "bab": 1312,
      "hold": 1313,
      "il": 1314,
      "li": 1315,
      "live": 1316,
      "med": 1317,
      "nat": 1318,
      "ram": 1319,
      "##ders": 1320,
      "inn": 1321,
      "##ution": 1322,
      "##acy": 1323,
      "anc": 1324,
      "frank": 1325,
      "event": 1326,
      "adv": 1327,
      "christ": 1328,
      "dan": 1329,
      "mr": 1330,
      "name": 1331,
      "##io": 1332,
      "these": 1333,
      "##enge": 1334,
      "##lex": 1335,
      "ant": 1336,
      "witness": 1337,
      "##ational": 1338,
      "brut": 1339,
      "soc": 1340,
      "meet": 1341,
      "turns": 1342,
      "survive": 1343,
      "century": 1344,
      "pursu": 1345,
      "violent": 1346,
      "follow": 1347,
      "encoun": 1348,
      "fail": 1349,
      "mus": 1350,
      "opp": 1351,
      "wild": 1352,
      "##ov": 1353,
      "##gu": 1354,
      "##iant": 1355,
      "##be": 1356,
      "##bor": 1357,
      "##ician": 1358,
      "##ills": 1359,
      "french": 1360,
      "next": 1361,
      "cross": 1362,
      "decide": 1363,
      "serv": 1364,
      "prevent": 1365,
      "doesn": 1366,
      "saf": 1367,
      "problem": 1368,
      "hor": 1369,
      "mich": 1370,
      "pop": 1371,
      "ru": 1372,
      "##ger": 1373,
      "##ral": 1374,
      "##par": 1375,
      "##ky": 1376,
      "##ense": 1377,
      "##ility": 1378,
      "##ete": 1379,
      "##ivil": 1380,
      "works": 1381,
      "partner": 1382,
      "quest": 1383,
      "ancient": 1384,
      "michael": 1385,
      "civil": 1386,
      "du": 1387,
      "eff": 1388,
      "psy": 1389,
      "san": 1390,
      "##xic": 1391,
      "##wor": 1392,
      "##ised": 1393,
      "##ades": 1394,
      "##rie": 1395,
      "prom": 1396,
      "leave": 1397,
      "shar": 1398,
      "knows": 1399,
      "##ploy": 1400,
      "desert": 1401,
      "murdered": 1402,
      "series": 1403,
      "begin": 1404,
      "everything": 1405,
      "##idden": 1406,
      "18": 1407,
      "cat": 1408,
      "cia": 1409,
      "fly": 1410,
      "litt": 1411,
      "made": 1412,
      "much": 1413,
      "rog": 1414,
      "squ": 1415,
      "use": 1416,
      "##dd": 1417,
      "##pe": 1418,
      "##ina": 1419,
      "##sters": 1420,
      "##osed": 1421,
      "exp": 1422,
      "defend": 1423,
      "village": 1424,
      "build": 1425,
      "little": 1426,
      "somet": 1427,
      "tem": 1428,
      "##by": 1429,
      "##ics": 1430,
      "##rig": 1431,
      "never": 1432,
      "marri": 1433,
      "steal": 1434,
      "driver": 1435,
      "scientist": 1436,
      "dream": 1437,
      "psych": 1438,
      "ear": 1439,
      "hired": 1440,
      "having": 1441,
      "pat": 1442,
      "rul": 1443,
      "ty": 1444,
      "##na": 1445,
      "##cer": 1446,
      "##ett": 1447,
      "##acher": 1448,
      "track": 1449,
      "comb": 1450,
      "afric": 1451,
      "defe": 1452,
      "children": 1453,
      "warrior": 1454,
      "company": 1455,
      "##world": 1456,
      "aw": 1457,
      "caught": 1458,
      "pir": 1459,
      "ren": 1460,
      "rival": 1461,
      "sets": 1462,
      "##boy": 1463,
      "tom": 1464,
      "those": 1465,
      "##olen": 1466,
      "heart": 1467,
      "whom": 1468,
      "stri": 1469,
      "stolen": 1470,
      "without": 1471,
      "rev": 1472,
      "##ellow": 1473,
      "##cond": 1474,
      "##ized": 1475,
      "hunt": 1476,
      "comput": 1477,
      "investigate": 1478,
      "##iety": 1479,
      "personal": 1480,
      "bur": 1481,
      "cy": 1482,
      "cur": 1483,
      "fem": 1484,
      "hot": 1485,
      "mal": 1486,
      "tur": 1487,
      "west": 1488,
      "##ler": 1489,
      "##ony": 1490,
      "##ural": 1491,
      "sever": 1492,
      "second": 1493,
      "##ager": 1494,
      "unf": 1495,
      "teen": 1496,
      "plane": 1497,
      "commun": 1498,
      "plays": 1499,
      "virus": 1500,
      "journey": 1501,
      "av": 1502,
      "cal": 1503,
      "fo": 1504,
      "mcc": 1505,
      "poss": 1506,
      "##ince": 1507,
      "tough": 1508,
      "chance": 1509,
      "##ortun": 1510,
      "impr": 1511,
      "relation": 1512,
      "starts": 1513,
      "priv": 1514,
      "assigned": 1515,
      "moun": 1516,
      "##ned": 1517,
      "##aul": 1518,
      "##me": 1519,
      "thin": 1520,
      "states": 1521,
      "##tern": 1522,
      "chall": 1523,
      "ext": 1524,
      "##umb": 1525,
      "able": 1526,
      "getting": 1527,
      "quick": 1528,
      "deter": 1529,
      "india": 1530,
      "##iddle": 1531,
      "arrives": 1532,
      "dragon": 1533,
      "sends": 1534,
      "angeles": 1535,
      "relationship": 1536,
      "hom": 1537,
      "kore": 1538,
      "kung": 1539,
      "mass": 1540,
      "ry": 1541,
      "test": 1542,
      "##ior": 1543,
      "##ingly": 1544,
      "##ason": 1545,
      "##ute": 1546,
      "ens": 1547,
      "class": 1548,
      "imp": 1549,
      "wealth": 1550,
      "escapes": 1551,
      "##pected": 1552,
      "few": 1553,
      "finally": 1554,
      "including": 1555,
      "differ": 1556,
      "innoc": 1557,
      "fig": 1558,
      "fear": 1559,
      "hal": 1560,
      "jones": 1561,
      "kar": 1562,
      "right": 1563,
      "rock": 1564,
      "wal": 1565,
      "you": 1566,
      "##cl": 1567,
      "##hood": 1568,
      "##edi": 1569,
      "##stem": 1570,
      "deep": 1571,
      "##ape": 1572,
      "champ": 1573,
      "spy": 1574,
      "hunter": 1575,
      "transform": 1576,
      "system": 1577,
      "conspir": 1578,
      "weapon": 1579,
      "aust": 1580,
      "coup": 1581,
      "caus": 1582,
      "five": 1583,
      "gain": 1584,
      "hu": 1585,
      "middle": 1586,
      "rag": 1587,
      "##oop": 1588,
      "##gn": 1589,
      "##ij": 1590,
      "##illa": 1591,
      "ago": 1592,
      "armed": 1593,
      "desp": 1594,
      "turned": 1595,
      "assassination": 1596,
      "peter": 1597,
      "organization": 1598,
      "ultimate": 1599,
      "defeat": 1600,
      "computer": 1601,
      "alex": 1602,
      "dut": 1603,
      "fellow": 1604,
      "ir": 1605,
      "lie": 1606,
      "pu": 1607,
      "##lin": 1608,
      "##ha": 1609,
      "##de": 1610,
      "##ism": 1611,
      "##ctor": 1612,
      "heav": 1613,
      "##ott": 1614,
      "##ider": 1615,
      "##ested": 1616,
      "tech": 1617,
      "mexic": 1618,
      "hands": 1619,
      "confron": 1620,
      "target": 1621,
      "operation": 1622,
      "million": 1623,
      "vampire": 1624,
      "north": 1625,
      "something": 1626,
      "ajay": 1627,
      "dist": 1628,
      "ge": 1629,
      "kir": 1630,
      "nav": 1631,
      "##ners": 1632,
      "##my": 1633,
      "##ises": 1634,
      "##ars": 1635,
      "##iter": 1636,
      "trouble": 1637,
      "prop": 1638,
      "chief": 1639,
      "taking": 1640,
      "polic": 1641,
      "project": 1642,
      "missing": 1643,
      "emper": 1644,
      "employ": 1645,
      "ends": 1646,
      "among": 1647,
      "humans": 1648,
      "captured": 1649,
      "survivors": 1650,
      "since": 1651,
      "wrong": 1652,
      "visit": 1653,
      "identity": 1654,
      "eventually": 1655,
      "society": 1656,
      "determin": 1657,
      "champion": 1658,
      "bill": 1659,
      "clear": 1660,
      "er": 1661,
      "gam": 1662,
      "key": 1663,
      "mc": 1664,
      "sell": 1665,
      "##uce": 1666,
      "##ek": 1667,
      "##men": 1668,
      "##inj": 1669,
      "##ision": 1670,
      "hist": 1671,
      "##rif": 1672,
      "princ": 1673,
      "##ights": 1674,
      "uncle": 1675,
      "disapp": 1676,
      "gangster": 1677,
      "coll": 1678,
      "maf": 1679,
      "someone": 1680,
      "paris": 1681,
      "guard": 1682,
      "seems": 1683,
      "hope": 1684,
      "involved": 1685,
      "entire": 1686,
      "brutal": 1687,
      "female": 1688,
      "bal": 1689,
      "bud": 1690,
      "ey": 1691,
      "fa": 1692,
      "fre": 1693,
      "full": 1694,
      "foot": 1695,
      "jung": 1696,
      "khan": 1697,
      "let": 1698,
      "ta": 1699,
      "vet": 1700,
      "##ead": 1701,
      "##ience": 1702,
      "##ising": 1703,
      "##edy": 1704,
      "##rees": 1705,
      "##urai": 1706,
      "##ama": 1707,
      "ann": 1708,
      "reve": 1709,
      "##unk": 1710,
      "joe": 1711,
      "joins": 1712,
      "smugg": 1713,
      "soldier": 1714,
      "samurai": 1715,
      "passeng": 1716,
      "merc": 1717,
      "##ield": 1718,
      "service": 1719,
      "revol": 1720,
      "private": 1721,
      "wealthy": 1722,
      "bor": 1723,
      "bat": 1724,
      "base": 1725,
      "gives": 1726,
      "jail": 1727,
      "mod": 1728,
      "var": 1729,
      "##ook": 1730,
      "##aur": 1731,
      "##ma": 1732,
      "##ya": 1733,
      "##yle": 1734,
      "##pic": 1735,
      "##ple": 1736,
      "##kn": 1737,
      "##atic": 1738,
      "##aly": 1739,
      "##ided": 1740,
      "cha": 1741,
      "##ush": 1742,
      "lee": 1743,
      "sheri": 1744,
      "doing": 1745,
      "##ize": 1746,
      "underworld": 1747,
      "teams": 1748,
      "training": 1749,
      "inform": 1750,
      "fighter": 1751,
      "legendary": 1752,
      "successful": 1753,
      "half": 1754,
      "emperor": 1755,
      "cas": 1756,
      "camp": 1757,
      "mind": 1758,
      "tw": 1759,
      "val": 1760,
      "##row": 1761,
      "##ray": 1762,
      "##ien": 1763,
      "##ball": 1764,
      "##ering": 1765,
      "##asy": 1766,
      "##elop": 1767,
      "thir": 1768,
      "white": 1769,
      "within": 1770,
      "alive": 1771,
      "chang": 1772,
      "##eman": 1773,
      "unit": 1774,
      "uncover": 1775,
      "taken": 1776,
      "william": 1777,
      "##oke": 1778,
      "uses": 1779,
      "agents": 1780,
      "amb": 1781,
      "kids": 1782,
      "attempts": 1783,
      "remain": 1784,
      "follows": 1785,
      "scientists": 1786,
      "weapons": 1787,
      "machine": 1788,
      "mountain": 1789,
      "different": 1790,
      "conspiracy": 1791,
      "couple": 1792,
      "mafia": 1793,
      "die": 1794,
      "est": 1795,
      "hon": 1796,
      "hol": 1797,
      "ruth": 1798,
      "six": 1799,
      "##ait": 1800,
      "##la": 1801,
      "##ches": 1802,
      "##za": 1803,
      "##ino": 1804,
      "toward": 1805,
      "##ote": 1806,
      "storm": 1807,
      "troop": 1808,
      "leaves": 1809,
      "##ode": 1810,
      "brings": 1811,
      "une": 1812,
      "sov": 1813,
      "close": 1814,
      "retrie": 1815,
      "intern": 1816,
      "villain": 1817,
      "warriors": 1818,
      "political": 1819,
      "animation": 1820,
      "ruthless": 1821,
      "dar": 1822,
      "fle": 1823,
      "hidden": 1824,
      "mad": 1825,
      "post": 1826,
      "sil": 1827,
      "##awn": 1828,
      "##ring": 1829,
      "##vious": 1830,
      "##ze": 1831,
      "##int": 1832,
      "##orts": 1833,
      "##ention": 1834,
      "nothing": 1835,
      "partic": 1836,
      "desper": 1837,
      "fights": 1838,
      "struggle": 1839,
      "refus": 1840,
      "baby": 1841,
      "unfortun": 1842,
      "catch": 1843,
      "naz": 1844,
      "##ged": 1845,
      "##to": 1846,
      "##band": 1847,
      "##ara": 1848,
      "##ening": 1849,
      "##ala": 1850,
      "thief": 1851,
      "rece": 1852,
      "##akes": 1853,
      "##uge": 1854,
      "enl": 1855,
      "crash": 1856,
      "aff": 1857,
      "dog": 1858,
      "mark": 1859,
      "party": 1860,
      "officers": 1861,
      "owner": 1862,
      "park": 1863,
      "runs": 1864,
      "seeks": 1865,
      "seeking": 1866,
      "develop": 1867,
      "johnny": 1868,
      "inside": 1869,
      "members": 1870,
      "ide": 1871,
      "convict": 1872,
      "politician": 1873,
      "colonel": 1874,
      "several": 1875,
      "determined": 1876,
      "princess": 1877,
      "jungle": 1878,
      "000": 1879,
      "bull": 1880,
      "hus": 1881,
      "lab": 1882,
      "nob": 1883,
      "ninj": 1884,
      "ray": 1885,
      "sal": 1886,
      "sav": 1887,
      "veg": 1888,
      "##gy": 1889,
      "##hip": 1890,
      "##iny": 1891,
      "##enly": 1892,
      "##illy": 1893,
      "##entor": 1894,
      "state": 1895,
      "##ific": 1896,
      "shot": 1897,
      "##ante": 1898,
      "##antic": 1899,
      "##ected": 1900,
      "wars": 1901,
      "##iance": 1902,
      "##wood": 1903,
      "resear": 1904,
      "carry": 1905,
      "box": 1906,
      "cover": 1907,
      "commit": 1908,
      "contact": 1909,
      "##blic": 1910,
      "capture": 1911,
      "##ground": 1912,
      "##uthor": 1913,
      "perf": 1914,
      "realizes": 1915,
      "released": 1916,
      "recruited": 1917,
      "squad": 1918,
      "combat": 1919,
      "quickly": 1920,
      "sheriff": 1921,
      "bre": 1922,
      "div": 1923,
      "doc": 1924,
      "giant": 1925,
      "lu": 1926,
      "late": 1927,
      "num": 1928,
      "ring": 1929,
      "sun": 1930,
      "task": 1931,
      "vol": 1932,
      "venge": 1933,
      "##go": 1934,
      "##side": 1935,
      "##ched": 1936,
      "##hab": 1937,
      "##pire": 1938,
      "##0s": 1939,
      "##here": 1940,
      "##ests": 1941,
      "##eder": 1942,
      "##ices": 1943,
      "##ele": 1944,
      "though": 1945,
      "##urity": 1946,
      "##ament": 1947,
      "##leg": 1948,
      "recover": 1949,
      "repor": 1950,
      "arch": 1951,
      "const": 1952,
      "unkn": 1953,
      "sudd": 1954,
      "cann": 1955,
      "strange": 1956,
      "device": 1957,
      "jackie": 1958,
      "everyone": 1959,
      "charact": 1960,
      "dealer": 1961,
      "suspect": 1962,
      "commander": 1963,
      "businessman": 1964,
      "history": 1965,
      "retrieve": 1966,
      "unfortunately": 1967,
      "dav": 1968,
      "dire": 1969,
      "fact": 1970,
      "jim": 1971,
      "nick": 1972,
      "occ": 1973,
      "tale": 1974,
      "vide": 1975,
      "wom": 1976,
      "water": 1977,
      "yet": 1978,
      "##ga": 1979,
      "##uel": 1980,
      "##law": 1981,
      "##ps": 1982,
      "##ann": 1983,
      "##enant": 1984,
      "##edd": 1985,
      "##itu": 1986,
      "##iment": 1987,
      "stay": 1988,
      "truck": 1989,
      "sex": 1990,
      "sees": 1991,
      "##ague": 1992,
      "##artment": 1993,
      "##ugs": 1994,
      "resident": 1995,
      "assist": 1996,
      "progr": 1997,
      "security": 1998,
      "betray": 1999,
      "skills": 2000,
      "charl": 2001,
      "inspect": 2002,
      "violence": 2003,
      "student": 2004,
      "robbery": 2005,
      "encounter": 2006,
      "rogue": 2007,
      "building": 2008,
      "lieut": 2009,
      "confront": 2010,
      "policeman": 2011,
      "soviet": 2012,
      "200": 2013,
      "boun": 2014,
      "eur": 2015,
      "fate": 2016,
      "less": 2017,
      "mic": 2018,
      "main": 2019,
      "mask": 2020,
      "orig": 2021,
      "##ee": 2022,
      "##lish": 2023,
      "##ck": 2024,
      "##dom": 2025,
      "##vel": 2026,
      "##esis": 2027,
      "##ories": 2028,
      "##ency": 2029,
      "##alist": 2030,
      "##itch": 2031,
      "thie": 2032,
      "##aded": 2033,
      "reach": 2034,
      "##hero": 2035,
      "##ope": 2036,
      "short": 2037,
      "##antly": 2038,
      "##ends": 2039,
      "enough": 2040,
      "##ths": 2041,
      "grand": 2042,
      "move": 2043,
      "cla": 2044,
      "murders": 2045,
      "##away": 2046,
      "##ounded": 2047,
      "prove": 2048,
      "gangs": 2049,
      "gangsters": 2050,
      "famous": 2051,
      "##prise": 2052,
      "investigation": 2053,
      "singh": 2054,
      "hostage": 2055,
      "victim": 2056,
      "despite": 2057,
      "kirk": 2058,
      "disappear": 2059,
      "husband": 2060,
      "ak": 2061,
      "aut": 2062,
      "author": 2063,
      "cast": 2064,
      "east": 2065,
      "fur": 2066,
      "hij": 2067,
      "luck": 2068,
      "pay": 2069,
      "rap": 2070,
      "##oon": 2071,
      "##up": 2072,
      "##aff": 2073,
      "##ress": 2074,
      "##ius": 2075,
      "##yal": 2076,
      "##for": 2077,
      "##down": 2078,
      "##hel": 2079,
      "##ern": 2080,
      "##iled": 2081,
      "step": 2082,
      "##illed": 2083,
      "##une": 2084,
      "separ": 2085,
      "##ement": 2086,
      "##ift": 2087,
      "agrees": 2088,
      "sha": 2089,
      "loyal": 2090,
      "##iven": 2091,
      "##ellig": 2092,
      "better": 2093,
      "##ruction": 2094,
      "esp": 2095,
      "cond": 2096,
      "elite": 2097,
      "superhero": 2098,
      "kingdom": 2099,
      "##ways": 2100,
      "anyone": 2101,
      "travels": 2102,
      "lands": 2103,
      "expert": 2104,
      "course": 2105,
      "believes": 2106,
      "professional": 2107,
      "rule": 2108,
      "austral": 2109,
      "freed": 2110,
      "veter": 2111,
      "women": 2112,
      "lieutenant": 2113,
      "hijack": 2114,
      "diam": 2115,
      "norm": 2116,
      "path": 2117,
      "paul": 2118,
      "que": 2119,
      "rad": 2120,
      "tit": 2121,
      "##ges": 2122,
      "##ih": 2123,
      "##most": 2124,
      "##icated": 2125,
      "##utes": 2126,
      "##rix": 2127,
      "rep": 2128,
      "##aps": 2129,
      "alone": 2130,
      "almost": 2131,
      "trail": 2132,
      "##oses": 2133,
      "##andon": 2134,
      "sum": 2135,
      "intellig": 2136,
      "abd": 2137,
      "resp": 2138,
      "sche": 2139,
      "board": 2140,
      "book": 2141,
      "prov": 2142,
      "cost": 2143,
      "previous": 2144,
      "hung": 2145,
      "guy": 2146,
      "feel": 2147,
      "heads": 2148,
      "transport": 2149,
      "remote": 2150,
      "survival": 2151,
      "aliens": 2152,
      "greatest": 2153,
      "streets": 2154,
      "soul": 2155,
      "searching": 2156,
      "vampires": 2157,
      "deliver": 2158,
      "imprison": 2159,
      "techn": 2160,
      "budd": 2161,
      "mercen": 2162,
      "inspector": 2163,
      "thieves": 2164,
      "cult": 2165,
      "di": 2166,
      "den": 2167,
      "dam": 2168,
      "equ": 2169,
      "got": 2170,
      "gone": 2171,
      "given": 2172,
      "hour": 2173,
      "lat": 2174,
      "low": 2175,
      "lot": 2176,
      "mine": 2177,
      "mike": 2178,
      "situ": 2179,
      "wes": 2180,
      "##uk": 2181,
      "##back": 2182,
      "##ping": 2183,
      "##que": 2184,
      "##ative": 2185,
      "##ared": 2186,
      "##ene": 2187,
      "inhab": 2188,
      "##ital": 2189,
      "##itive": 2190,
      "##icks": 2191,
      "##asure": 2192,
      "heist": 2193,
      "station": 2194,
      "fort": 2195,
      "##ads": 2196,
      "##vers": 2197,
      "asks": 2198,
      "prince": 2199,
      "##osen": 2200,
      "##ulf": 2201,
      "unl": 2202,
      "suff": 2203,
      "ground": 2204,
      "kills": 2205,
      "add": 2206,
      "leading": 2207,
      "retire": 2208,
      "##ruct": 2209,
      "official": 2210,
      "genet": 2211,
      "199": 2212,
      "running": 2213,
      "anything": 2214,
      "flight": 2215,
      "subm": 2216,
      "happens": 2217,
      "demand": 2218,
      "large": 2219,
      "rambo": 2220,
      "problems": 2221,
      "marriage": 2222,
      "public": 2223,
      "mexico": 2224,
      "batman": 2225,
      "third": 2226,
      "diamond": 2227,
      "ast": 2228,
      "billy": 2229,
      "cold": 2230,
      "double": 2231,
      "nar": 2232,
      "sat": 2233,
      "self": 2234,
      "##ne": 2235,
      "##che": 2236,
      "##tle": 2237,
      "##ont": 2238,
      "told": 2239,
      "##ats": 2240,
      "andre": 2241,
      "thing": 2242,
      "##aches": 2243,
      "##iding": 2244,
      "always": 2245,
      "neigh": 2246,
      "shad": 2247,
      "##istan": 2248,
      "unable": 2249,
      "crus": 2250,
      "spe": 2251,
      "disp": 2252,
      "##ude": 2253,
      "leaders": 2254,
      "empire": 2255,
      "making": 2256,
      "used": 2257,
      "corpor": 2258,
      "appears": 2259,
      "engine": 2260,
      "puts": 2261,
      "road": 2262,
      "experiment": 2263,
      "creatures": 2264,
      "rebels": 2265,
      "richard": 2266,
      "bodygu": 2267,
      "matrix": 2268,
      "romance": 2269,
      "thinks": 2270,
      "passengers": 2271,
      "international": 2272,
      "research": 2273,
      "reporter": 2274,
      "video": 2275,
      "bodyguard": 2276,
      "born": 2277,
      "cow": 2278,
      "jud": 2279,
      "kind": 2280,
      "line": 2281,
      "mis": 2282,
      "mist": 2283,
      "might": 2284,
      "mort": 2285,
      "pie": 2286,
      "sen": 2287,
      "say": 2288,
      "tim": 2289,
      "ww": 2290,
      "watch": 2291,
      "yak": 2292,
      "##uza": 2293,
      "##lane": 2294,
      "##can": 2295,
      "##cher": 2296,
      "##ped": 2297,
      "##ered": 2298,
      "##aries": 2299,
      "##otic": 2300,
      "##ada": 2301,
      "truth": 2302,
      "trapped": 2303,
      "##agers": 2304,
      "##ulation": 2305,
      "brought": 2306,
      "bruce": 2307,
      "agency": 2308,
      "##iew": 2309,
      "exec": 2310,
      "disaster": 2311,
      "teacher": 2312,
      "held": 2313,
      "younger": 2314,
      "arms": 2315,
      "design": 2316,
      "battles": 2317,
      "reluct": 2318,
      "calls": 2319,
      "parents": 2320,
      "194": 2321,
      "seek": 2322,
      "harry": 2323,
      "monk": 2324,
      "present": 2325,
      "kidnapp": 2326,
      "member": 2327,
      "enemies": 2328,
      "artist": 2329,
      "convin": 2330,
      "assignment": 2331,
      "breaks": 2332,
      "racing": 2333,
      "support": 2334,
      "instead": 2335,
      "explos": 2336,
      "ultimately": 2337,
      "accidentally": 2338,
      "swords": 2339,
      "illeg": 2340,
      "christian": 2341,
      "patr": 2342,
      "revolution": 2343,
      "suddenly": 2344,
      "program": 2345,
      "bounty": 2346,
      "europe": 2347,
      "yakuza": 2348,
      "avenge": 2349,
      "ba": 2350,
      "cle": 2351,
      "cell": 2352,
      "dom": 2353,
      "gh": 2354,
      "ham": 2355,
      "jai": 2356,
      "light": 2357,
      "mid": 2358,
      "pick": 2359,
      "pull": 2360,
      "pair": 2361,
      "und": 2362,
      "##lict": 2363,
      "##br": 2364,
      "##zilla": 2365,
      "onto": 2366,
      "##owed": 2367,
      "stunt": 2368,
      "really": 2369,
      "proc": 2370,
      "cho": 2371,
      "chosen": 2372,
      "##angers": 2373,
      "grant": 2374,
      "abo": 2375,
      "orders": 2376,
      "##ordon": 2377,
      "trained": 2378,
      "interest": 2379,
      "appro": 2380,
      "loses": 2381,
      "complete": 2382,
      "##ologist": 2383,
      "students": 2384,
      "immedi": 2385,
      "professor": 2386,
      "shooting": 2387,
      "african": 2388,
      "challeng": 2389,
      "extre": 2390,
      "korean": 2391,
      "ryan": 2392,
      "innocent": 2393,
      "figure": 2394,
      "navy": 2395,
      "gambl": 2396,
      "vegas": 2397,
      "freedom": 2398,
      "western": 2399,
      "cer": 2400,
      "cash": 2401,
      "han": 2402,
      "hers": 2403,
      "hell": 2404,
      "ju": 2405,
      "jet": 2406,
      "pal": 2407,
      "pun": 2408,
      "ran": 2409,
      "roman": 2410,
      "river": 2411,
      "swe": 2412,
      "tang": 2413,
      "##yl": 2414,
      "##bed": 2415,
      "##jo": 2416,
      "##ences": 2417,
      "##icts": 2418,
      "##imin": 2419,
      "##idence": 2420,
      "france": 2421,
      "change": 2422,
      "leaving": 2423,
      "comedy": 2424,
      "outlaw": 2425,
      "manages": 2426,
      "drama": 2427,
      "news": 2428,
      "resul": 2429,
      "blade": 2430,
      "knight": 2431,
      "marsh": 2432,
      "import": 2433,
      "counter": 2434,
      "create": 2435,
      "drive": 2436,
      "charge": 2437,
      "justice": 2438,
      "adventur": 2439,
      "threatens": 2440,
      "needs": 2441,
      "solve": 2442,
      "ashoke": 2443,
      "career": 2444,
      "anti": 2445,
      "africa": 2446,
      "reneg": 2447,
      "avoid": 2448,
      "number": 2449,
      "veteran": 2450,
      "queen": 2451,
      "inhabit": 2452,
      "herself": 2453,
      "100": 2454,
      "bik": 2455,
      "der": 2456,
      "dir": 2457,
      "dying": 2458,
      "field": 2459,
      "feder": 2460,
      "hack": 2461,
      "jul": 2462,
      "las": 2463,
      "matt": 2464,
      "pac": 2465,
      "roy": 2466,
      "rick": 2467,
      "ranger": 2468,
      "ten": 2469,
      "##gg": 2470,
      "##ued": 2471,
      "##eper": 2472,
      "##rap": 2473,
      "##ming": 2474,
      "##yp": 2475,
      "##com": 2476,
      "##vir": 2477,
      "##where": 2478,
      "##ined": 2479,
      "##orge": 2480,
      "##orious": 2481,
      "##arian": 2482,
      "##ille": 2483,
      "##icate": 2484,
      "thus": 2485,
      "thugs": 2486,
      "##stit": 2487,
      "##uristic": 2488,
      "why": 2489,
      "##irth": 2490,
      "##ries": 2491,
      "##ceed": 2492,
      "seen": 2493,
      "chic": 2494,
      "##ago": 2495,
      "brad": 2496,
      "univer": 2497,
      "enfor": 2498,
      "exc": 2499,
      "exist": 2500,
      "finding": 2501,
      "adop": 2502,
      "termin": 2503,
      "others": 2504,
      "compet": 2505,
      "destruction": 2506,
      "accept": 2507,
      "futuristic": 2508,
      "controll": 2509,
      "kidnap": 2510,
      "adventures": 2511,
      "england": 2512,
      "barb": 2513,
      "godzilla": 2514,
      "green": 2515,
      "connection": 2516,
      "motor": 2517,
      "open": 2518,
      "following": 2519,
      "encounters": 2520,
      "flying": 2521,
      "dreams": 2522,
      "community": 2523,
      "possess": 2524,
      "ragh": 2525,
      "changes": 2526,
      "refuses": 2527,
      "vengeance": 2528,
      "submar": 2529,
      "illegal": 2530,
      "bust": 2531,
      "cam": 2532,
      "doll": 2533,
      "fant": 2534,
      "gad": 2535,
      "give": 2536,
      "gab": 2537,
      "huge": 2538,
      "mom": 2539,
      "mentor": 2540,
      "pak": 2541,
      "pret": 2542,
      "sar": 2543,
      "sle": 2544,
      "sour": 2545,
      "tv": 2546,
      "tony": 2547,
      "ve": 2548,
      "vac": 2549,
      "wast": 2550,
      "##of": 2551,
      "##uan": 2552,
      "##uff": 2553,
      "##eign": 2554,
      "##fe": 2555,
      "##hal": 2556,
      "##val": 2557,
      "##inary": 2558,
      "##ored": 2559,
      "toky": 2560,
      "##ites": 2561,
      "##ready": 2562,
      "##ilt": 2563,
      "##eless": 2564,
      "##aces": 2565,
      "##oti": 2566,
      "store": 2567,
      "front": 2568,
      "already": 2569,
      "chan": 2570,
      "chase": 2571,
      "##ula": 2572,
      "##used": 2573,
      "contain": 2574,
      "##iforn": 2575,
      "coming": 2576,
      "##sequ": 2577,
      "disc": 2578,
      "evidence": 2579,
      "allied": 2580,
      "result": 2581,
      "##ially": 2582,
      "##tract": 2583,
      "carl": 2584,
      "##izes": 2585,
      "marry": 2586,
      "web": 2587,
      "sons": 2588,
      "territ": 2589,
      "reality": 2590,
      "else": 2591,
      "raised": 2592,
      "##onsible": 2593,
      "assassins": 2594,
      "highly": 2595,
      "played": 2596,
      "##press": 2597,
      "attacked": 2598,
      "guns": 2599,
      "conflict": 2600,
      "singer": 2601,
      "wanted": 2602,
      "edd": 2603,
      "obs": 2604,
      "iii": 2605,
      "nearly": 2606,
      "##ology": 2607,
      "college": 2608,
      "machines": 2609,
      "showdown": 2610,
      "embar": 2611,
      "pursued": 2612,
      "californ": 2613,
      "reveal": 2614,
      "information": 2615,
      "towards": 2616,
      "unex": 2617,
      "desperate": 2618,
      "perfect": 2619,
      "david": 2620,
      "chicago": 2621,
      "tokyo": 2622,
      "aid": 2623,
      "bob": 2624,
      "cit": 2625,
      "cut": 2626,
      "cir": 2627,
      "cous": 2628,
      "cust": 2629,
      "code": 2630,
      "ded": 2631,
      "dies": 2632,
      "emer": 2633,
      "kim": 2634,
      "lin": 2635,
      "mi": 2636,
      "pack": 2637,
      "rid": 2638,
      "sac": 2639,
      "sign": 2640,
      "zor": 2641,
      "##rant": 2642,
      "##lu": 2643,
      "##come": 2644,
      "##ndon": 2645,
      "##esh": 2646,
      "tourn": 2647,
      "##ita": 2648,
      "##ilst": 2649,
      "##eland": 2650,
      "##ola": 2651,
      "whilst": 2652,
      "foreign": 2653,
      "##ader": 2654,
      "##osp": 2655,
      "##chan": 2656,
      "london": 2657,
      "uns": 2658,
      "such": 2659,
      "spect": 2660,
      "grac": 2661,
      "##ians": 2662,
      "drop": 2663,
      "killers": 2664,
      "abs": 2665,
      "doom": 2666,
      "boat": 2667,
      "##ails": 2668,
      "robbers": 2669,
      "murderous": 2670,
      "superman": 2671,
      "198": 2672,
      "prisoners": 2673,
      "martin": 2674,
      "slave": 2675,
      "boys": 2676,
      "contract": 2677,
      "mines": 2678,
      "destroying": 2679,
      "months": 2680,
      "humanity": 2681,
      "memory": 2682,
      "activ": 2683,
      "suspic": 2684,
      "seemingly": 2685,
      "treasure": 2686,
      "complet": 2687,
      "peaceful": 2688,
      "magic": 2689,
      "connor": 2690,
      "enterprise": 2691,
      "release": 2692,
      "glob": 2693,
      "ill": 2694,
      "pirates": 2695,
      "##umbles": 2696,
      "massive": 2697,
      "selling": 2698,
      "eye": 2699,
      "various": 2700,
      "honor": 2701,
      "troops": 2702,
      "particip": 2703,
      "nazi": 2704,
      "unknown": 2705,
      "situation": 2706,
      "certain": 2707,
      "inhabitants": 2708,
      "submarine": 2709,
      "california": 2710,
      "tournament": 2711,
      "10": 2712,
      "15": 2713,
      "11": 2714,
      "ber": 2715,
      "due": 2716,
      "eld": 2717,
      "iron": 2718,
      "ken": 2719,
      "lif": 2720,
      "luc": 2721,
      "match": 2722,
      "our": 2723,
      "pot": 2724,
      "rig": 2725,
      "sens": 2726,
      "tor": 2727,
      "vik": 2728,
      "wip": 2729,
      "##oved": 2730,
      "##gets": 2731,
      "##au": 2732,
      "##ris": 2733,
      "##ms": 2734,
      "##lord": 2735,
      "##era": 2736,
      "inj": 2737,
      "##asc": 2738,
      "##aced": 2739,
      "##olic": 2740,
      "stumbles": 2741,
      "bey": 2742,
      "forest": 2743,
      "##unch": 2744,
      "age": 2745,
      "shows": 2746,
      "lover": 2747,
      "suc": 2748,
      "##earing": 2749,
      "blue": 2750,
      "adm": 2751,
      "surr": 2752,
      "##ques": 2753,
      "prec": 2754,
      "hunted": 2755,
      "elimin": 2756,
      "raid": 2757,
      "accom": 2758,
      "priest": 2759,
      "##ilities": 2760,
      "keeps": 2761,
      "phys": 2762,
      "english": 2763,
      "happy": 2764,
      "happened": 2765,
      "bloody": 2766,
      "rebell": 2767,
      "arrested": 2768,
      "journalist": 2769,
      "victor": 2770,
      "robots": 2771,
      "realize": 2772,
      "continue": 2773,
      "pirate": 2774,
      "challenge": 2775,
      "causes": 2776,
      "smuggling": 2777,
      "border": 2778,
      "##edding": 2779,
      "charlie": 2780,
      "normal": 2781,
      "intelligence": 2782,
      "abduct": 2783,
      "hours": 2784,
      "engineer": 2785,
      "process": 2786,
      "immediately": 2787,
      "renegade": 2788,
      "citiz": 2789,
      "50": 2790,
      "bi": 2791,
      "fat": 2792,
      "gordon": 2793,
      "hires": 2794,
      "ice": 2795,
      "jer": 2796,
      "jake": 2797,
      "mu": 2798,
      "mess": 2799,
      "non": 2800,
      "om": 2801,
      "rans": 2802,
      "ridd": 2803,
      "sir": 2804,
      "ver": 2805,
      "view": 2806,
      "##net": 2807,
      "##yer": 2808,
      "##hic": 2809,
      "##pin": 2810,
      "##phan": 2811,
      "##kes": 2812,
      "##kind": 2813,
      "##ora": 2814,
      "init": 2815,
      "##ald": 2816,
      "##alous": 2817,
      "##rel": 2818,
      "##asion": 2819,
      "##ety": 2820,
      "##olin": 2821,
      "##rib": 2822,
      "##rid": 2823,
      "##aker": 2824,
      "trust": 2825,
      "seven": 2826,
      "##agues": 2827,
      "neo": 2828,
      "##ived": 2829,
      "sup": 2830,
      "disgu": 2831,
      "tex": 2832,
      "abandon": 2833,
      "events": 2834,
      "orphan": 2835,
      "meg": 2836,
      "means": 2837,
      "became": 2838,
      "resist": 2839,
      "respect": 2840,
      "doctor": 2841,
      "##athan": 2842,
      "notorious": 2843,
      "##ission": 2844,
      "friendship": 2845,
      "planning": 2846,
      "trib": 2847,
      "ways": 2848,
      "partners": 2849,
      "famil": 2850,
      "serge": 2851,
      "hunters": 2852,
      "vijay": 2853,
      "destiny": 2854,
      "becoming": 2855,
      "runaway": 2856,
      "drugs": 2857,
      "count": 2858,
      "sky": 2859,
      "contest": 2860,
      "childhood": 2861,
      "poor": 2862,
      "point": 2863,
      "corruption": 2864,
      "hostages": 2865,
      "involving": 2866,
      "department": 2867,
      "pilots": 2868,
      "recruits": 2869,
      "elect": 2870,
      "morgan": 2871,
      "safety": 2872,
      "temple": 2873,
      "earl": 2874,
      "strike": 2875,
      "korea": 2876,
      "duty": 2877,
      "flee": 2878,
      "ninja": 2879,
      "carrying": 2880,
      "michel": 2881,
      "authorities": 2882,
      "shaolin": 2883,
      "imprisoned": 2884,
      "neighbor": 2885,
      "shadow": 2886,
      "times": 2887,
      "pakistan": 2888,
      "territory": 2889,
      "unexpected": 2890,
      "gracie": 2891,
      "beyond": 2892,
      "ban": 2893,
      "done": 2894,
      "ec": 2895,
      "fun": 2896,
      "goth": 2897,
      "hide": 2898,
      "jac": 2899,
      "kr": 2900,
      "mel": 2901,
      "odd": 2902,
      "por": 2903,
      "pic": 2904,
      "pos": 2905,
      "ramp": 2906,
      "sor": 2907,
      "sad": 2908,
      "sides": 2909,
      "saves": 2910,
      "vows": 2911,
      "wil": 2912,
      "went": 2913,
      "ze": 2914,
      "zomb": 2915,
      "##oks": 2916,
      "##nat": 2917,
      "##rent": 2918,
      "##lo": 2919,
      "##cus": 2920,
      "##born": 2921,
      "##war": 2922,
      "##ndred": 2923,
      "##ished": 2924,
      "##ata": 2925,
      "##ali": 2926,
      "hear": 2927,
      "##owing": 2928,
      "stan": 2929,
      "stat": 2930,
      "##idal": 2931,
      "reign": 2932,
      "reason": 2933,
      "framed": 2934,
      "franc": 2935,
      "##erson": 2936,
      "##unn": 2937,
      "trade": 2938,
      "prod": 2939,
      "##oph": 2940,
      "sea": 2941,
      "attract": 2942,
      "area": 2943,
      "conqu": 2944,
      "should": 2945,
      "##ount": 2946,
      "suit": 2947,
      "exch": 2948,
      "except": 2949,
      "spir": 2950,
      "ability": 2951,
      "##asty": 2952,
      "##ocaly": 2953,
      "##ips": 2954,
      "club": 2955,
      "##ishing": 2956,
      "##awa": 2957,
      "surf": 2958,
      "secre": 2959,
      "week": 2960,
      "serious": 2961,
      "amaz": 2962,
      "guys": 2963,
      "197": 2964,
      "devil": 2965,
      "prisoner": 2966,
      "slay": 2967,
      "drif": 2968,
      "assassinate": 2969,
      "incident": 2970,
      "minister": 2971,
      "dealing": 2972,
      "sinister": 2973,
      "threatened": 2974,
      "purs": 2975,
      "mobster": 2976,
      "##ourne": 2977,
      "room": 2978,
      "creature": 2979,
      "single": 2980,
      "##ological": 2981,
      "chris": 2982,
      "supposed": 2983,
      "jew": 2984,
      "continues": 2985,
      "safe": 2986,
      "horse": 2987,
      "popular": 2988,
      "homic": 2989,
      "ensues": 2990,
      "hundred": 2991,
      "george": 2992,
      "casino": 2993,
      "affair": 2994,
      "docum": 2995,
      "cannot": 2996,
      "jimmy": 2997,
      "responsible": 2998,
      "speed": 2999,
      "ghost": 3000,
      "important": 3001,
      "universe": 3002,
      "gadget": 3003,
      "vacation": 3004,
      "sergeant": 3005,
      "gotham": 3006,
      "francis": 3007,
      "00": 3008,
      "ball": 3009,
      "din": 3010,
      "did": 3011,
      "ep": 3012,
      "eth": 3013,
      "eight": 3014,
      "egg": 3015,
      "ho": 3016,
      "hav": 3017,
      "lady": 3018,
      "mir": 3019,
      "map": 3020,
      "ride": 3021,
      "rise": 3022,
      "role": 3023,
      "treat": 3024,
      "vig": 3025,
      "vers": 3026,
      "won": 3027,
      "wedding": 3028,
      "##aun": 3029,
      "##cing": 3030,
      "##tles": 3031,
      "##ban": 3032,
      "##pow": 3033,
      "##win": 3034,
      "##esc": 3035,
      "##anced": 3036,
      "##ishes": 3037,
      "##atr": 3038,
      "##inger": 3039,
      "##itting": 3040,
      "##rey": 3041,
      "##iltr": 3042,
      "##ica": 3043,
      "##icop": 3044,
      "##omber": 3045,
      "##ential": 3046,
      "##stone": 3047,
      "##urre": 3048,
      "whole": 3049,
      "##ots": 3050,
      "##ado": 3051,
      "repl": 3052,
      "requ": 3053,
      "ready": 3054,
      "alice": 3055,
      "##oper": 3056,
      "sequ": 3057,
      "##osh": 3058,
      "##ander": 3059,
      "##usion": 3060,
      "atl": 3061,
      "nem": 3062,
      "brill": 3063,
      "shut": 3064,
      "loves": 3065,
      "##ended": 3066,
      "union": 3067,
      "sure": 3068,
      "##obi": 3069,
      "manage": 3070,
      "mankind": 3071,
      "crack": 3072,
      "crook": 3073,
      "goal": 3074,
      "extra": 3075,
      "##ects": 3076,
      "spend": 3077,
      "drawn": 3078,
      "carter": 3079,
      "invasion": 3080,
      "helps": 3081,
      "prostit": 3082,
      "marine": 3083,
      "underground": 3084,
      "robin": 3085,
      "pregn": 3086,
      "discovered": 3087,
      "escaped": 3088,
      "##azy": 3089,
      "player": 3090,
      "defense": 3091,
      "skull": 3092,
      "ordered": 3093,
      "influ": 3094,
      "infiltr": 3095,
      "minutes": 3096,
      "survivor": 3097,
      "blackm": 3098,
      "arrive": 3099,
      "lawyer": 3100,
      "experience": 3101,
      "created": 3102,
      "##itten": 3103,
      "apocaly": 3104,
      "edge": 3105,
      "hopes": 3106,
      "targets": 3107,
      "traveling": 3108,
      "arrest": 3109,
      "organized": 3110,
      "colleagues": 3111,
      "faces": 3112,
      "facility": 3113,
      "danny": 3114,
      "sharpe": 3115,
      "married": 3116,
      "early": 3117,
      "football": 3118,
      "boxer": 3119,
      "confrontation": 3120,
      "claim": 3121,
      "scheme": 3122,
      "unlik": 3123,
      "astron": 3124,
      "cowboy": 3125,
      "clean": 3126,
      "controlled": 3127,
      "sarah": 3128,
      "eddie": 3129,
      "elder": 3130,
      "ransom": 3131,
      "texas": 3132,
      "michelle": 3133,
      "picard": 3134,
      "##natural": 3135,
      "secrets": 3136,
      "vigil": 3137,
      "17": 3138,
      "12": 3139,
      "burn": 3140,
      "birth": 3141,
      "bomber": 3142,
      "card": 3143,
      "cure": 3144,
      "came": 3145,
      "cause": 3146,
      "dum": 3147,
      "dyn": 3148,
      "fast": 3149,
      "gala": 3150,
      "hosp": 3151,
      "jedi": 3152,
      "kal": 3153,
      "lou": 3154,
      "national": 3155,
      "page": 3156,
      "rod": 3157,
      "rank": 3158,
      "roll": 3159,
      "sel": 3160,
      "wat": 3161,
      "wind": 3162,
      "wait": 3163,
      "wounded": 3164,
      "##under": 3165,
      "##eum": 3166,
      "##aire": 3167,
      "##let": 3168,
      "##hod": 3169,
      "##bad": 3170,
      "##jun": 3171,
      "##xy": 3172,
      "##ari": 3173,
      "ine": 3174,
      "isn": 3175,
      "##uted": 3176,
      "ans": 3177,
      "dece": 3178,
      "##unath": 3179,
      "pred": 3180,
      "##use": 3181,
      "neg": 3182,
      "##ify": 3183,
      "logan": 3184,
      "enters": 3185,
      "crow": 3186,
      "draw": 3187,
      "teach": 3188,
      "blind": 3189,
      "cars": 3190,
      "assum": 3191,
      "clos": 3192,
      "washing": 3193,
      "imag": 3194,
      "tribe": 3195,
      "robert": 3196,
      "somewhere": 3197,
      "strong": 3198,
      "streng": 3199,
      "deser": 3200,
      "serial": 3201,
      "smith": 3202,
      "location": 3203,
      "protection": 3204,
      "accused": 3205,
      "steel": 3206,
      "attacks": 3207,
      "monster": 3208,
      "mystery": 3209,
      "priya": 3210,
      "villagers": 3211,
      "dealers": 3212,
      "actually": 3213,
      "threaten": 3214,
      "##raft": 3215,
      "##ecially": 3216,
      "pete": 3217,
      "starting": 3218,
      "hitman": 3219,
      "arrang": 3220,
      "races": 3221,
      "virt": 3222,
      "jealous": 3223,
      "mutants": 3224,
      "believe": 3225,
      "simon": 3226,
      "museum": 3227,
      "population": 3228,
      "question": 3229,
      "effort": 3230,
      "teenager": 3231,
      "foil": 3232,
      "heavily": 3233,
      "reveals": 3234,
      "chaos": 3235,
      "silver": 3236,
      "labor": 3237,
      "characters": 3238,
      "residents": 3239,
      "especially": 3240,
      "radio": 3241,
      "genetically": 3242,
      "corporation": 3243,
      "piece": 3244,
      "aboard": 3245,
      "federation": 3246,
      "competition": 3247,
      "raghunath": 3248,
      "blackmail": 3249,
      "unlikely": 3250,
      "washington": 3251,
      "16": 3252,
      "airl": 3253,
      "bang": 3254,
      "bish": 3255,
      "cab": 3256,
      "dol": 3257,
      "died": 3258,
      "fought": 3259,
      "fiance": 3260,
      "hen": 3261,
      "hur": 3262,
      "jin": 3263,
      "jill": 3264,
      "lap": 3265,
      "mil": 3266,
      "mong": 3267,
      "mix": 3268,
      "mouse": 3269,
      "mumb": 3270,
      "nap": 3271,
      "nak": 3272,
      "nation": 3273,
      "nine": 3274,
      "oil": 3275,
      "rav": 3276,
      "sie": 3277,
      "ur": 3278,
      "##ove": 3279,
      "##gar": 3280,
      "##gen": 3281,
      "##ef": 3282,
      "##een": 3283,
      "##ae": 3284,
      "##af": 3285,
      "##ii": 3286,
      "##iation": 3287,
      "##mon": 3288,
      "##mans": 3289,
      "##mark": 3290,
      "##sm": 3291,
      "##craft": 3292,
      "##how": 3293,
      "##dock": 3294,
      "##ja": 3295,
      "##ji": 3296,
      "##vin": 3297,
      "##zo": 3298,
      "##kh": 3299,
      "##ona": 3300,
      "##ores": 3301,
      "##enn": 3302,
      "inm": 3303,
      "##ither": 3304,
      "##icious": 3305,
      "##omic": 3306,
      "##eth": 3307,
      "##elet": 3308,
      "##owly": 3309,
      "stone": 3310,
      "##tered": 3311,
      "deb": 3312,
      "##aki": 3313,
      "alco": 3314,
      "season": 3315,
      "chow": 3316,
      "##agon": 3317,
      "##anda": 3318,
      "##aine": 3319,
      "arjun": 3320,
      "conc": 3321,
      "shin": 3322,
      "##anted": 3323,
      "unle": 3324,
      "worse": 3325,
      "cras": 3326,
      "cruel": 3327,
      "spec": 3328,
      "##ably": 3329,
      "warlord": 3330,
      "grab": 3331,
      "dise": 3332,
      "abilities": 3333,
      "newly": 3334,
      "helicop": 3335,
      "##oken": 3336,
      "proves": 3337,
      "decl": 3338,
      "##bert": 3339,
      "impl": 3340,
      "trip": 3341,
      "somehow": 3342,
      "older": 3343,
      "thrill": 3344,
      "settle": 3345,
      "##aze": 3346,
      "supernatural": 3347,
      "kingpin": 3348,
      "acqu": 3349,
      "slowly": 3350,
      "driving": 3351,
      "boyfriend": 3352,
      "itself": 3353,
      "investigating": 3354,
      "destroyed": 3355,
      "##bled": 3356,
      "losing": 3357,
      "phil": 3358,
      "susan": 3359,
      "knowled": 3360,
      "joined": 3361,
      "court": 3362,
      "animals": 3363,
      "talking": 3364,
      "snow": 3365,
      "element": 3366,
      "holds": 3367,
      "media": 3368,
      "daniel": 3369,
      "pursuit": 3370,
      "failed": 3371,
      "duo": 3372,
      "youth": 3373,
      "lethal": 3374,
      "modern": 3375,
      "valley": 3376,
      "receives": 3377,
      "enlist": 3378,
      "nobody": 3379,
      "character": 3380,
      "betrayed": 3381,
      "original": 3382,
      "technology": 3383,
      "mercenary": 3384,
      "fortune": 3385,
      "retirement": 3386,
      "kidnapping": 3387,
      "pacific": 3388,
      "motorcy": 3389,
      "source": 3390,
      "jacques": 3391,
      "zombies": 3392,
      "exchange": 3393,
      "francisco": 3394,
      "nemesis": 3395,
      "brilliant": 3396,
      "pregnant": 3397,
      "vigilante": 3398,
      "hospital": 3399,
      "negoti": 3400,
      "bishop": 3401,
      "lapd": 3402,
      "mumbai": 3403,
      "alcoh": 3404,
      "knowledge": 3405,
      "ax": 3406,
      "aster": 3407,
      "bow": 3408,
      "bod": 3409,
      "dou": 3410,
      "dur": 3411,
      "dad": 3412,
      "dict": 3413,
      "eve": 3414,
      "easy": 3415,
      "fug": 3416,
      "foc": 3417,
      "food": 3418,
      "gar": 3419,
      "lose": 3420,
      "ming": 3421,
      "oce": 3422,
      "rome": 3423,
      "rose": 3424,
      "torn": 3425,
      "van": 3426,
      "wid": 3427,
      "wall": 3428,
      "yang": 3429,
      "##gl": 3430,
      "##uous": 3431,
      "##ew": 3432,
      "##rict": 3433,
      "##vi": 3434,
      "##hen": 3435,
      "tour": 3436,
      "##itious": 3437,
      "##ilar": 3438,
      "##ston": 3439,
      "heir": 3440,
      "##oted": 3441,
      "beow": 3442,
      "forb": 3443,
      "##ading": 3444,
      "##ctions": 3445,
      "##cepts": 3446,
      "trou": 3447,
      "trap": 3448,
      "here": 3449,
      "##ember": 3450,
      "##iff": 3451,
      "aging": 3452,
      "shock": 3453,
      "looks": 3454,
      "##anta": 3455,
      "word": 3456,
      "manager": 3457,
      "cru": 3458,
      "##avan": 3459,
      "exact": 3460,
      "spain": 3461,
      "##throw": 3462,
      "grows": 3463,
      "##elling": 3464,
      "##ipl": 3465,
      "resurre": 3466,
      "clim": 3467,
      "scar": 3468,
      "score": 3469,
      "retired": 3470,
      "decided": 3471,
      "overthrow": 3472,
      "triad": 3473,
      "##ensive": 3474,
      "quiet": 3475,
      "coast": 3476,
      "genesis": 3477,
      "##irsty": 3478,
      "devast": 3479,
      "recently": 3480,
      "fallen": 3481,
      "angels": 3482,
      "interested": 3483,
      "heroes": 3484,
      "britain": 3485,
      "sinbad": 3486,
      "threatening": 3487,
      "sym": 3488,
      "keeping": 3489,
      "arrival": 3490,
      "attempting": 3491,
      "convince": 3492,
      "knowing": 3493,
      "apart": 3494,
      "fund": 3495,
      "rebel": 3496,
      "obtain": 3497,
      "bride": 3498,
      "mutant": 3499,
      "golden": 3500,
      "romantic": 3501,
      "talk": 3502,
      "simple": 3503,
      "native": 3504,
      "nature": 3505,
      "advanced": 3506,
      "oppos": 3507,
      "civilization": 3508,
      "efforts": 3509,
      "sanjay": 3510,
      "exped": 3511,
      "turtles": 3512,
      "imposs": 3513,
      "irish": 3514,
      "heaven": 3515,
      "distant": 3516,
      "williams": 3517,
      "estab": 3518,
      "daring": 3519,
      "idea": 3520,
      "luke": 3521,
      "director": 3522,
      "castle": 3523,
      "further": 3524,
      "australian": 3525,
      "australia": 3526,
      "title": 3527,
      "hungry": 3528,
      "revolutionary": 3529,
      "challenges": 3530,
      "biker": 3531,
      "dirty": 3532,
      "terminator": 3533,
      "embarks": 3534,
      "zorro": 3535,
      "succeed": 3536,
      "citizens": 3537,
      "resistance": 3538,
      "families": 3539,
      "astronaut": 3540,
      "dynasty": 3541,
      "galaxy": 3542,
      "pageant": 3543,
      "14": 3544,
      "bas": 3545,
      "cul": 3546,
      "fan": 3547,
      "fol": 3548,
      "gay": 3549,
      "hat": 3550,
      "hire": 3551,
      "hiding": 3552,
      "ira": 3553,
      "lone": 3554,
      "pain": 3555,
      "rout": 3556,
      "ross": 3557,
      "rail": 3558,
      "tag": 3559,
      "tort": 3560,
      "tape": 3561,
      "vess": 3562,
      "vicious": 3563,
      "wol": 3564,
      "##nn": 3565,
      "##rin": 3566,
      "##rom": 3567,
      "##rop": 3568,
      "##ium": 3569,
      "##mely": 3570,
      "##fic": 3571,
      "##cul": 3572,
      "##day": 3573,
      "##pan": 3574,
      "##ergy": 3575,
      "##onment": 3576,
      "##enced": 3577,
      "##itude": 3578,
      "##asing": 3579,
      "##asts": 3580,
      "isra": 3581,
      "##cts": 3582,
      "thous": 3583,
      "thought": 3584,
      "ones": 3585,
      "##ura": 3586,
      "stal": 3587,
      "forever": 3588,
      "##ried": 3589,
      "asked": 3590,
      "decept": 3591,
      "reun": 3592,
      "##hern": 3593,
      "fran": 3594,
      "##aken": 3595,
      "chand": 3596,
      "##ulous": 3597,
      "##usive": 3598,
      "##emon": 3599,
      "braz": 3600,
      "unw": 3601,
      "worst": 3602,
      "envir": 3603,
      "extr": 3604,
      "drac": 3605,
      "##coy": 3606,
      "alliance": 3607,
      "offers": 3608,
      "moon": 3609,
      "moves": 3610,
      "##ptic": 3611,
      "##izing": 3612,
      "##izard": 3613,
      "terry": 3614,
      "terrif": 3615,
      "murph": 3616,
      "##attle": 3617,
      "quar": 3618,
      "quite": 3619,
      "battling": 3620,
      "common": 3621,
      "americans": 3622,
      "prepar": 3623,
      "indust": 3624,
      "relig": 3625,
      "raise": 3626,
      "returned": 3627,
      "playing": 3628,
      "accepts": 3629,
      "harbor": 3630,
      "headed": 3631,
      "steals": 3632,
      "rescued": 3633,
      "incre": 3634,
      "mining": 3635,
      "investigates": 3636,
      "mont": 3637,
      "beloved": 3638,
      "transfer": 3639,
      "center": 3640,
      "central": 3641,
      "actor": 3642,
      "syn": 3643,
      "phant": 3644,
      "fighters": 3645,
      "generation": 3646,
      "chem": 3647,
      "treacher": 3648,
      "breaking": 3649,
      "demon": 3650,
      "supply": 3651,
      "millions": 3652,
      "restore": 3653,
      "dragons": 3654,
      "embro": 3655,
      "stands": 3656,
      "liber": 3657,
      "witnesses": 3658,
      "fails": 3659,
      "##borg": 3660,
      "ruler": 3661,
      "cyborg": 3662,
      "teenage": 3663,
      "mcclane": 3664,
      "innocence": 3665,
      "mexican": 3666,
      "mccoy": 3667,
      "eyes": 3668,
      "##ienced": 3669,
      "mountains": 3670,
      "enlists": 3671,
      "convicted": 3672,
      "volcan": 3673,
      "archae": 3674,
      "diab": 3675,
      "suffering": 3676,
      "patrol": 3677,
      "domin": 3678,
      "extremely": 3679,
      "royal": 3680,
      "adopted": 3681,
      "dollars": 3682,
      "spectac": 3683,
      "disease": 3684,
      "focus": 3685,
      "ocean": 3686,
      "beowulf": 3687,
      "expedition": 3688,
      "impossible": 3689,
      "israel": 3690,
      "thousand": 3691,
      "brazil": 3692,
      "environment": 3693,
      "murphy": 3694,
      "bent": 3695,
      "buck": 3696,
      "cele": 3697,
      "fal": 3698,
      "fist": 3699,
      "fav": 3700,
      "fair": 3701,
      "filled": 3702,
      "gor": 3703,
      "jur": 3704,
      "lt": 3705,
      "lies": 3706,
      "mik": 3707,
      "ner": 3708,
      "net": 3709,
      "nyp": 3710,
      "ok": 3711,
      "pan": 3712,
      "port": 3713,
      "rand": 3714,
      "sab": 3715,
      "site": 3716,
      "tall": 3717,
      "tina": 3718,
      "tele": 3719,
      "wong": 3720,
      "wise": 3721,
      "wreak": 3722,
      "yuan": 3723,
      "##nes": 3724,
      "##gest": 3725,
      "##ees": 3726,
      "##ax": 3727,
      "##res": 3728,
      "##rick": 3729,
      "##ique": 3730,
      "##mi": 3731,
      "##mes": 3732,
      "##mers": 3733,
      "##lers": 3734,
      "##the": 3735,
      "##ham": 3736,
      "##hist": 3737,
      "##den": 3738,
      "##van": 3739,
      "##kok": 3740,
      "##hew": 3741,
      "inner": 3742,
      "##itable": 3743,
      "##ications": 3744,
      "##omatic": 3745,
      "##elly": 3746,
      "##ented": 3747,
      "##ached": 3748,
      "##str": 3749,
      "heat": 3750,
      "style": 3751,
      "beat": 3752,
      "##adi": 3753,
      "##riel": 3754,
      "##vert": 3755,
      "actions": 3756,
      "##apt": 3757,
      "##aper": 3758,
      "##ersey": 3759,
      "altern": 3760,
      "trick": 3761,
      "chased": 3762,
      "##aging": 3763,
      "##anded": 3764,
      "##ains": 3765,
      "##estyle": 3766,
      "ath": 3767,
      "##ified": 3768,
      "commer": 3769,
      "worth": 3770,
      "managed": 3771,
      "croc": 3772,
      "intrig": 3773,
      "spent": 3774,
      "spider": 3775,
      "warhe": 3776,
      "warring": 3777,
      "##perial": 3778,
      "##elled": 3779,
      "mechan": 3780,
      "clone": 3781,
      "##oker": 3782,
      "scene": 3783,
      "helped": 3784,
      "mars": 3785,
      "overcome": 3786,
      "imperial": 3787,
      "emot": 3788,
      "ending": 3789,
      "owned": 3790,
      "hunting": 3791,
      "196": 3792,
      "193": 3793,
      "devi": 3794,
      "recon": 3795,
      "record": 3796,
      "crimes": 3797,
      "sentenced": 3798,
      "myth": 3799,
      "skilled": 3800,
      "harper": 3801,
      "rescues": 3802,
      "films": 3803,
      "##ronic": 3804,
      "belong": 3805,
      "masters": 3806,
      "captive": 3807,
      "subject": 3808,
      "poison": 3809,
      "##ancher": 3810,
      "trek": 3811,
      "beauty": 3812,
      "indiana": 3813,
      "method": 3814,
      "explor": 3815,
      "courage": 3816,
      "##ynn": 3817,
      "##ooks": 3818,
      "immig": 3819,
      "struggles": 3820,
      "201": 3821,
      "diffic": 3822,
      "vietnamese": 3823,
      "advis": 3824,
      "horrif": 3825,
      "beginning": 3826,
      "awak": 3827,
      "awry": 3828,
      "turk": 3829,
      "possible": 3830,
      "feared": 3831,
      "faith": 3832,
      "successfully": 3833,
      "uncovers": 3834,
      "holly": 3835,
      "particular": 3836,
      "nazis": 3837,
      "market": 3838,
      "noble": 3839,
      "covert": 3840,
      "suspects": 3841,
      "occur": 3842,
      "masked": 3843,
      "victims": 3844,
      "conduct": 3845,
      "addict": 3846,
      "diamonds": 3847,
      "satell": 3848,
      "says": 3849,
      "wwii": 3850,
      "reluctant": 3851,
      "convinces": 3852,
      "convinced": 3853,
      "braddock": 3854,
      "gabriel": 3855,
      "obsess": 3856,
      "cousin": 3857,
      "custom": 3858,
      "completely": 3859,
      "lifestyle": 3860,
      "fatal": 3861,
      "riddick": 3862,
      "abandoned": 3863,
      "007": 3864,
      "apocalyptic": 3865,
      "answ": 3866,
      "henry": 3867,
      "siege": 3868,
      "helicopter": 3869,
      "fugitive": 3870,
      "spectacular": 3871,
      "celebr": 3872,
      "nypd": 3873,
      "21": 3874,
      "ace": 3875,
      "aug": 3876,
      "cant": 3877,
      "dig": 3878,
      "dun": 3879,
      "dipl": 3880,
      "et": 3881,
      "earn": 3882,
      "eating": 3883,
      "eric": 3884,
      "epic": 3885,
      "fab": 3886,
      "fict": 3887,
      "hood": 3888,
      "hills": 3889,
      "ign": 3890,
      "ja": 3891,
      "jun": 3892,
      "jess": 3893,
      "jane": 3894,
      "josh": 3895,
      "mac": 3896,
      "mult": 3897,
      "nab": 3898,
      "obl": 3899,
      "pose": 3900,
      "rather": 3901,
      "rangers": 3902,
      "sand": 3903,
      "sole": 3904,
      "tel": 3905,
      "tab": 3906,
      "wing": 3907,
      "wins": 3908,
      "wizard": 3909,
      "##oom": 3910,
      "##ney": 3911,
      "##gie": 3912,
      "##ault": 3913,
      "##ram": 3914,
      "##iors": 3915,
      "##ten": 3916,
      "##bing": 3917,
      "##break": 3918,
      "##jali": 3919,
      "##vation": 3920,
      "##pet": 3921,
      "##kara": 3922,
      "##ink": 3923,
      "##ints": 3924,
      "tot": 3925,
      "took": 3926,
      "##ato": 3927,
      "##alion": 3928,
      "##iless": 3929,
      "##ionage": 3930,
      "thail": 3931,
      "##acre": 3932,
      "##acles": 3933,
      "##olesc": 3934,
      "##leans": 3935,
      "anjali": 3936,
      "##adu": 3937,
      "##rible": 3938,
      "##rigan": 3939,
      "##ida": 3940,
      "##verick": 3941,
      "dean": 3942,
      "prim": 3943,
      "chop": 3944,
      "##aga": 3945,
      "leo": 3946,
      "nec": 3947,
      "arun": 3948,
      "arab": 3949,
      "##ifact": 3950,
      "##angled": 3951,
      "brown": 3952,
      "shaw": 3953,
      "sue": 3954,
      "cry": 3955,
      "italy": 3956,
      "span": 3957,
      "spart": 3958,
      "sport": 3959,
      "spock": 3960,
      "##thirsty": 3961,
      "grim": 3962,
      "##ella": 3963,
      "drunk": 3964,
      "##sey": 3965,
      "evol": 3966,
      "allows": 3967,
      "allowed": 3968,
      "shel": 3969,
      "orleans": 3970,
      "knights": 3971,
      "##uda": 3972,
      "clans": 3973,
      "invention": 3974,
      "scan": 3975,
      "scen": 3976,
      "helping": 3977,
      "##uces": 3978,
      "boot": 3979,
      "marcus": 3980,
      "##rypt": 3981,
      "maverick": 3982,
      "##ension": 3983,
      "##ograp": 3984,
      "stranded": 3985,
      "murderer": 3986,
      "battalion": 3987,
      "cook": 3988,
      "secretly": 3989,
      "prep": 3990,
      "compete": 3991,
      "befriend": 3992,
      "turning": 3993,
      "locked": 3994,
      "superior": 3995,
      "195": 3996,
      "jackson": 3997,
      "highway": 3998,
      "feud": 3999,
      "falling": 4000,
      "incred": 4001,
      "flash": 4002,
      "governor": 4003,
      "learning": 4004,
      "monsters": 4005,
      "mayor": 4006,
      "protecting": 4007,
      "appar": 4008,
      "memories": 4009,
      "subsequ": 4010,
      "perform": 4011,
      "synd": 4012,
      "susp": 4013,
      "artifact": 4014,
      "passes": 4015,
      "passed": 4016,
      "plots": 4017,
      "germans": 4018,
      "bloodthirsty": 4019,
      "apes": 4020,
      "apartment": 4021,
      "winner": 4022,
      "indians": 4023,
      "complicated": 4024,
      "farm": 4025,
      "deput": 4026,
      "colleague": 4027,
      "brian": 4028,
      "metal": 4029,
      "forms": 4030,
      "restaur": 4031,
      "matters": 4032,
      "sidek": 4033,
      "entangled": 4034,
      "facing": 4035,
      "brutally": 4036,
      "meeting": 4037,
      "pursuing": 4038,
      "duke": 4039,
      "flynn": 4040,
      "temper": 4041,
      "ruling": 4042,
      "figures": 4043,
      "karan": 4044,
      "causing": 4045,
      "dutch": 4046,
      "visiting": 4047,
      "billion": 4048,
      "passenger": 4049,
      "ambitious": 4050,
      "politicians": 4051,
      "ninjas": 4052,
      "disappearance": 4053,
      "separated": 4054,
      "espionage": 4055,
      "mercenaries": 4056,
      "demands": 4057,
      "crusades": 4058,
      "mortal": 4059,
      "swordsman": 4060,
      "gambling": 4061,
      "hacker": 4062,
      "waste": 4063,
      "bobby": 4064,
      "sacrif": 4065,
      "suspicious": 4066,
      "surround": 4067,
      "eliminate": 4068,
      "rebellion": 4069,
      "omkara": 4070,
      "disguise": 4071,
      "rampage": 4072,
      "sorcer": 4073,
      "spirit": 4074,
      "amazing": 4075,
      "pursue": 4076,
      "extraord": 4077,
      "strength": 4078,
      "fiancee": 4079,
      "napole": 4080,
      "dictator": 4081,
      "embroiled": 4082,
      "commerc": 4083,
      "difficult": 4084,
      "thailand": 4085,
      "restaurant": 4086,
      "25": 4087,
      "30": 4088,
      "az": 4089,
      "bum": 4090,
      "bound": 4091,
      "bourne": 4092,
      "cav": 4093,
      "cath": 4094,
      "date": 4095,
      "diver": 4096,
      "data": 4097,
      "fer": 4098,
      "fel": 4099,
      "fay": 4100,
      "fles": 4101,
      "fears": 4102,
      "gal": 4103,
      "gig": 4104,
      "hy": 4105,
      "hall": 4106,
      "haw": 4107,
      "hench": 4108,
      "haun": 4109,
      "jon": 4110,
      "jum": 4111,
      "kam": 4112,
      "kash": 4113,
      "lim": 4114,
      "lad": 4115,
      "lay": 4116,
      "lang": 4117,
      "lines": 4118,
      "mos": 4119,
      "mitch": 4120,
      "pa": 4121,
      "pear": 4122,
      "row": 4123,
      "rain": 4124,
      "rural": 4125,
      "rising": 4126,
      "tsu": 4127,
      "vs": 4128,
      "wre": 4129,
      "wearing": 4130,
      "##off": 4131,
      "##nie": 4132,
      "##ging": 4133,
      "##gger": 4134,
      "##ux": 4135,
      "##aight": 4136,
      "##aign": 4137,
      "##ration": 4138,
      "##rod": 4139,
      "##roll": 4140,
      "##mind": 4141,
      "##mous": 4142,
      "##sen": 4143,
      "##far": 4144,
      "##ti": 4145,
      "##house": 4146,
      "##bur": 4147,
      "##bles": 4148,
      "##jack": 4149,
      "##zz": 4150,
      "##zer": 4151,
      "##ken": 4152,
      "##work": 4153,
      "##heart": 4154,
      "theft": 4155,
      "##orous": 4156,
      "touch": 4157,
      "##isher": 4158,
      "##atory": 4159,
      "##ators": 4160,
      "##atched": 4161,
      "##arm": 4162,
      "##ena": 4163,
      "##enny": 4164,
      "##omas": 4165,
      "##ases": 4166,
      "##ental": 4167,
      "##olm": 4168,
      "##uru": 4169,
      "##uries": 4170,
      "##ira": 4171,
      "stage": 4172,
      "bean": 4173,
      "##aders": 4174,
      "##adem": 4175,
      "##illing": 4176,
      "reed": 4177,
      "rever": 4178,
      "alan": 4179,
      "prose": 4180,
      "seas": 4181,
      "##osaur": 4182,
      "##agi": 4183,
      "##aint": 4184,
      "level": 4185,
      "nep": 4186,
      "arth": 4187,
      "comr": 4188,
      "comic": 4189,
      "brave": 4190,
      "sho": 4191,
      "shark": 4192,
      "loose": 4193,
      "loved": 4194,
      "##ending": 4195,
      "unless": 4196,
      "energy": 4197,
      "##avier": 4198,
      "spar": 4199,
      "allies": 4200,
      "orb": 4201,
      "mew": 4202,
      "office": 4203,
      "resour": 4204,
      "door": 4205,
      "blues": 4206,
      "joker": 4207,
      "adam": 4208,
      "invinc": 4209,
      "inventor": 4210,
      "##ght": 4211,
      "attorn": 4212,
      "scor": 4213,
      "scre": 4214,
      "scott": 4215,
      "term": 4216,
      "background": 4217,
      "marines": 4218,
      "decades": 4219,
      "##epend": 4220,
      "trio": 4221,
      "straight": 4222,
      "##fully": 4223,
      "usa": 4224,
      "commission": 4225,
      "secretary": 4226,
      "humil": 4227,
      "independ": 4228,
      "locate": 4229,
      "began": 4230,
      "survives": 4231,
      "parker": 4232,
      "genius": 4233,
      "stars": 4234,
      "myst": 4235,
      "skyn": 4236,
      "angry": 4237,
      "angola": 4238,
      "handle": 4239,
      "heroin": 4240,
      "heroic": 4241,
      "investigator": 4242,
      "mastermind": 4243,
      "prize": 4244,
      "engaged": 4245,
      "legion": 4246,
      "happen": 4247,
      "aircraft": 4248,
      "countryside": 4249,
      "##anche": 4250,
      "ape": 4251,
      "educ": 4252,
      "writer": 4253,
      "winter": 4254,
      "winning": 4255,
      "demons": 4256,
      "russia": 4257,
      "lords": 4258,
      "region": 4259,
      "greed": 4260,
      "matter": 4261,
      "robberies": 4262,
      "similar": 4263,
      "##oids": 4264,
      "struggling": 4265,
      "20th": 4266,
      "##unte": 4267,
      "refuge": 4268,
      "holding": 4269,
      "promises": 4270,
      "ruled": 4271,
      "tyr": 4272,
      "strikes": 4273,
      "##onymous": 4274,
      "massacre": 4275,
      "classic": 4276,
      "karate": 4277,
      "transforms": 4278,
      "transformed": 4279,
      "huo": 4280,
      "district": 4281,
      "campaign": 4282,
      "remaining": 4283,
      "breath": 4284,
      "division": 4285,
      "occup": 4286,
      "sexy": 4287,
      "betrayal": 4288,
      "furious": 4289,
      "lucky": 4290,
      "steps": 4291,
      "separate": 4292,
      "hijacked": 4293,
      "provide": 4294,
      "equip": 4295,
      "narc": 4296,
      "andrew": 4297,
      "designed": 4298,
      "reluctantly": 4299,
      "extreme": 4300,
      "sweep": 4301,
      "results": 4302,
      "marshal": 4303,
      "enforce": 4304,
      "existence": 4305,
      "fantasy": 4306,
      "vehic": 4307,
      "miy": 4308,
      "absol": 4309,
      "global": 4310,
      "abducted": 4311,
      "earlier": 4312,
      "econ": 4313,
      "surface": 4314,
      "drifter": 4315,
      "document": 4316,
      "havoc": 4317,
      "version": 4318,
      "prostitute": 4319,
      "bangkok": 4320,
      "dolly": 4321,
      "crashes": 4322,
      "alcoholic": 4323,
      "axel": 4324,
      "bodies": 4325,
      "troubled": 4326,
      "cruise": 4327,
      "vessel": 4328,
      "franz": 4329,
      "terrifying": 4330,
      "phantom": 4331,
      "favor": 4332,
      "incredible": 4333,
      "napoleon": 4334,
      "commercial": 4335,
      "flesh": 4336,
      "prosec": 4337,
      "arthur": 4338,
      "attorney": 4339,
      "skynet": 4340,
      "13": 4341,
      "300": 4342,
      "bh": 4343,
      "bit": 4344,
      "bag": 4345,
      "bul": 4346,
      "bunch": 4347,
      "cou": 4348,
      "cand": 4349,
      "cave": 4350,
      "cattle": 4351,
      "dal": 4352,
      "dna": 4353,
      "ecc": 4354,
      "egy": 4355,
      "fi": 4356,
      "fier": 4357,
      "gas": 4358,
      "gather": 4359,
      "grie": 4360,
      "hust": 4361,
      "jam": 4362,
      "joy": 4363,
      "kh": 4364,
      "kap": 4365,
      "kang": 4366,
      "kate": 4367,
      "kick": 4368,
      "kersey": 4369,
      "ll": 4370,
      "linc": 4371,
      "oct": 4372,
      "pus": 4373,
      "ri": 4374,
      "ris": 4375,
      "rights": 4376,
      "rancher": 4377,
      "sense": 4378,
      "tick": 4379,
      "tunn": 4380,
      "ut": 4381,
      "vinc": 4382,
      "wood": 4383,
      "zak": 4384,
      "zone": 4385,
      "##oor": 4386,
      "##oad": 4387,
      "##ev": 4388,
      "##rob": 4389,
      "##rently": 4390,
      "##iac": 4391,
      "##iest": 4392,
      "##mber": 4393,
      "##sa": 4394,
      "##yan": 4395,
      "##figh": 4396,
      "##father": 4397,
      "##ties": 4398,
      "##vels": 4399,
      "##ville": 4400,
      "##post": 4401,
      "##kins": 4402,
      "##ktra": 4403,
      "##wide": 4404,
      "##hend": 4405,
      "##hest": 4406,
      "##inn": 4407,
      "##ini": 4408,
      "##orida": 4409,
      "toy": 4410,
      "tow": 4411,
      "##atoon": 4412,
      "##eds": 4413,
      "inad": 4414,
      "##oud": 4415,
      "##ashed": 4416,
      "ish": 4417,
      "##entric": 4418,
      "##stand": 4419,
      "##oln": 4420,
      "##ami": 4421,
      "##amous": 4422,
      "##otics": 4423,
      "anton": 4424,
      "stake": 4425,
      "fortr": 4426,
      "witch": 4427,
      "##idate": 4428,
      "##iger": 4429,
      "deeper": 4430,
      "report": 4431,
      "albert": 4432,
      "tricks": 4433,
      "press": 4434,
      "prime": 4435,
      "sean": 4436,
      "chap": 4437,
      "##osa": 4438,
      "##agle": 4439,
      "leon": 4440,
      "neut": 4441,
      "consequ": 4442,
      "##anged": 4443,
      "##odile": 4444,
      "plague": 4445,
      "platoon": 4446,
      "agend": 4447,
      "shat": 4448,
      "##iva": 4449,
      "##ivid": 4450,
      "##ively": 4451,
      "unite": 4452,
      "unique": 4453,
      "enhan": 4454,
      "suic": 4455,
      "outside": 4456,
      "outpost": 4457,
      "##aved": 4458,
      "##avag": 4459,
      "intent": 4460,
      "introd": 4461,
      "spaces": 4462,
      "##abor": 4463,
      "##coon": 4464,
      "discl": 4465,
      "teens": 4466,
      "allow": 4467,
      "##astic": 4468,
      "mega": 4469,
      "##ocr": 4470,
      "##ocop": 4471,
      "##iley": 4472,
      "##assic": 4473,
      "##tray": 4474,
      "blow": 4475,
      "blown": 4476,
      "joey": 4477,
      "carol": 4478,
      "assem": 4479,
      "assoc": 4480,
      "assault": 4481,
      "clan": 4482,
      "adolesc": 4483,
      "invis": 4484,
      "invited": 4485,
      "attention": 4486,
      "attitude": 4487,
      "scale": 4488,
      "terrible": 4489,
      "##ucer": 4490,
      "##uced": 4491,
      "peas": 4492,
      "trigger": 4493,
      "robocop": 4494,
      "serving": 4495,
      "amid": 4496,
      "owners": 4497,
      "discovery": 4498,
      "turner": 4499,
      "workers": 4500,
      "ell": 4501,
      "guer": 4502,
      "guide": 4503,
      "superiors": 4504,
      "19th": 4505,
      "corps": 4506,
      "feet": 4507,
      "feels": 4508,
      "marty": 4509,
      "swim": 4510,
      "kevin": 4511,
      "academ": 4512,
      "heading": 4513,
      "steve": 4514,
      "florida": 4515,
      "infamous": 4516,
      "persu": 4517,
      "travelling": 4518,
      "landing": 4519,
      "buys": 4520,
      "built": 4521,
      "centuries": 4522,
      "detectives": 4523,
      "loser": 4524,
      "purp": 4525,
      "phone": 4526,
      "jobs": 4527,
      "consc": 4528,
      "baron": 4529,
      "suspected": 4530,
      "finish": 4531,
      "financ": 4532,
      "rook": 4533,
      "bigger": 4534,
      "ultra": 4535,
      "nightm": 4536,
      "commando": 4537,
      "commanding": 4538,
      "started": 4539,
      "chen": 4540,
      "operative": 4541,
      "magical": 4542,
      "mete": 4543,
      "regard": 4544,
      "connected": 4545,
      "victory": 4546,
      "believed": 4547,
      "romul": 4548,
      "immort": 4549,
      "glory": 4550,
      "snakes": 4551,
      "opens": 4552,
      "colony": 4553,
      "elektra": 4554,
      "maxim": 4555,
      "natural": 4556,
      "music": 4557,
      "services": 4558,
      "horrigan": 4559,
      "psychotic": 4560,
      "type": 4561,
      "curse": 4562,
      "currently": 4563,
      "thinking": 4564,
      "walk": 4565,
      "gains": 4566,
      "##otten": 4567,
      "proper": 4568,
      "collaps": 4569,
      "remains": 4570,
      "develops": 4571,
      "bullet": 4572,
      "sales": 4573,
      "committed": 4574,
      "volunte": 4575,
      "constantly": 4576,
      "unknow": 4577,
      "cannon": 4578,
      "assistance": 4579,
      "disappeared": 4580,
      "autob": 4581,
      "shaft": 4582,
      "feeling": 4583,
      "buddy": 4584,
      "latest": 4585,
      "##uki": 4586,
      "suffers": 4587,
      "##ructed": 4588,
      "officials": 4589,
      "##chen": 4590,
      "execut": 4591,
      "explosion": 4592,
      "undead": 4593,
      "choice": 4594,
      "gambler": 4595,
      "resulting": 4596,
      "camer": 4597,
      "dedicated": 4598,
      "kimble": 4599,
      "activities": 4600,
      "globe": 4601,
      "rigg": 4602,
      "admir": 4603,
      "precious": 4604,
      "accompan": 4605,
      "jerry": 4606,
      "message": 4607,
      "suppl": 4608,
      "odds": 4609,
      "portray": 4610,
      "stanley": 4611,
      "dinosaur": 4612,
      "treatment": 4613,
      "crooked": 4614,
      "infiltrate": 4615,
      "elderly": 4616,
      "ranking": 4617,
      "inmates": 4618,
      "species": 4619,
      "motorcycle": 4620,
      "widow": 4621,
      "forbidden": 4622,
      "hatred": 4623,
      "religious": 4624,
      "transferred": 4625,
      "chemical": 4626,
      "jurassic": 4627,
      "##vertently": 4628,
      "crocodile": 4629,
      "warheads": 4630,
      "awakens": 4631,
      "satellite": 4632,
      "august": 4633,
      "scenes": 4634,
      "prepare": 4635,
      "deputy": 4636,
      "extraordinary": 4637,
      "pearl": 4638,
      "invincible": 4639,
      "narcotics": 4640,
      "miyagi": 4641,
      "documentary": 4642,
      "eccentric": 4643,
      "egypt": 4644,
      "kapoor": 4645,
      "lincoln": 4646,
      "tunnel": 4647,
      "inadvertently": 4648,
      "fortress": 4649,
      "agenda": 4650,
      "spaceship": 4651,
      "aar": 4652,
      "ari": 4653,
      "aud": 4654,
      "aven": 4655,
      "bun": 4656,
      "bach": 4657,
      "cher": 4658,
      "cart": 4659,
      "dell": 4660,
      "dangers": 4661,
      "eat": 4662,
      "fasc": 4663,
      "gall": 4664,
      "giving": 4665,
      "hir": 4666,
      "hind": 4667,
      "hits": 4668,
      "ich": 4669,
      "jay": 4670,
      "jade": 4671,
      "jared": 4672,
      "list": 4673,
      "loss": 4674,
      "lik": 4675,
      "liter": 4676,
      "lynn": 4677,
      "miam": 4678,
      "na": 4679,
      "ny": 4680,
      "nas": 4681,
      "nur": 4682,
      "nort": 4683,
      "nik": 4684,
      "ol": 4685,
      "os": 4686,
      "ot": 4687,
      "od": 4688,
      "pit": 4689,
      "ple": 4690,
      "pand": 4691,
      "ric": 4692,
      "rip": 4693,
      "rough": 4694,
      "rider": 4695,
      "sid": 4696,
      "tum": 4697,
      "tank": 4698,
      "tai": 4699,
      "vo": 4700,
      "von": 4701,
      "vice": 4702,
      "vast": 4703,
      "vish": 4704,
      "wo": 4705,
      "wa": 4706,
      "wan": 4707,
      "wave": 4708,
      "wage": 4709,
      "wish": 4710,
      "xavier": 4711,
      "##uke": 4712,
      "##iated": 4713,
      "##mas": 4714,
      "##sion": 4715,
      "##colm": 4716,
      "##tic": 4717,
      "##time": 4718,
      "##two": 4719,
      "##taugh": 4720,
      "##hot": 4721,
      "##bon": 4722,
      "##bes": 4723,
      "##bar": 4724,
      "##body": 4725,
      "##zen": 4726,
      "##xx": 4727,
      "##pre": 4728,
      "##kov": 4729,
      "##wal": 4730,
      "##well": 4731,
      "##woman": 4732,
      "##wise": 4733,
      "##waki": 4734,
      "theod": 4735,
      "##ining": 4736,
      "##ndel": 4737,
      "##nday": 4738,
      "##ano": 4739,
      "##anny": 4740,
      "toug": 4741,
      "often": 4742,
      "ingen": 4743,
      "##iti": 4744,
      "##iling": 4745,
      "##omon": 4746,
      "##oul": 4747,
      "thomas": 4748,
      "##enty": 4749,
      "##olate": 4750,
      "##urch": 4751,
      "health": 4752,
      "stuck": 4753,
      "beast": 4754,
      "ford": 4755,
      "forcing": 4756,
      "##veill": 4757,
      "deals": 4758,
      "reject": 4759,
      "reward": 4760,
      "frust": 4761,
      "##aplane": 4762,
      "##aks": 4763,
      "##aking": 4764,
      "alter": 4765,
      "alth": 4766,
      "##cend": 4767,
      "traff": 4768,
      "seal": 4769,
      "chip": 4770,
      "church": 4771,
      "##ained": 4772,
      "atomic": 4773,
      "arist": 4774,
      "##essive": 4775,
      "##essary": 4776,
      "##emen": 4777,
      "##employ": 4778,
      "brandon": 4779,
      "broken": 4780,
      "shop": 4781,
      "share": 4782,
      "shape": 4783,
      "loot": 4784,
      "unaw": 4785,
      "unemploy": 4786,
      "manh": 4787,
      "crazy": 4788,
      "goons": 4789,
      "expect": 4790,
      "spl": 4791,
      "spot": 4792,
      "##aba": 4793,
      "##umi": 4794,
      "##umed": 4795,
      "drin": 4796,
      "newest": 4797,
      "willing": 4798,
      "willow": 4799,
      "worldwide": 4800,
      "knife": 4801,
      "##plane": 4802,
      "clues": 4803,
      "invaders": 4804,
      "##ossa": 4805,
      "sci": 4806,
      "friendly": 4807,
      "planned": 4808,
      "murtaugh": 4809,
      "surpr": 4810,
      "surprise": 4811,
      "surveill": 4812,
      "decision": 4813,
      "armor": 4814,
      "missile": 4815,
      "##quar": 4816,
      "maid": 4817,
      "weak": 4818,
      "wayne": 4819,
      "##ogg": 4820,
      "string": 4821,
      "struck": 4822,
      "endanger": 4823,
      "escort": 4824,
      "detro": 4825,
      "individ": 4826,
      "discovering": 4827,
      "novel": 4828,
      "worker": 4829,
      "missions": 4830,
      "parts": 4831,
      "johan": 4832,
      "supermark": 4833,
      "corner": 4834,
      "earthqu": 4835,
      "account": 4836,
      "skin": 4837,
      "skelet": 4838,
      "harass": 4839,
      "harsh": 4840,
      "trains": 4841,
      "mostly": 4842,
      "infected": 4843,
      "minor": 4844,
      "##lessly": 4845,
      "##bling": 4846,
      "surviving": 4847,
      "alias": 4848,
      "acting": 4849,
      "confeder": 4850,
      "phot": 4851,
      "airport": 4852,
      "airplane": 4853,
      "militia": 4854,
      "##keeper": 4855,
      "creates": 4856,
      "telling": 4857,
      "wrest": 4858,
      "joining": 4859,
      "obst": 4860,
      "farmer": 4861,
      "magician": 4862,
      "magnet": 4863,
      "depicts": 4864,
      "collect": 4865,
      "formed": 4866,
      "formula": 4867,
      "regime": 4868,
      "explo": 4869,
      "greedy": 4870,
      "grendel": 4871,
      "##ibility": 4872,
      "needed": 4873,
      "embark": 4874,
      "includes": 4875,
      "faced": 4876,
      "germany": 4877,
      "medical": 4878,
      "christmas": 4879,
      "social": 4880,
      "followed": 4881,
      "opportun": 4882,
      "crossed": 4883,
      "duel": 4884,
      "effects": 4885,
      "promot": 4886,
      "templ": 4887,
      "rules": 4888,
      "hotel": 4889,
      "malcolm": 4890,
      "mccall": 4891,
      "ryback": 4892,
      "testify": 4893,
      "systems": 4894,
      "caused": 4895,
      "employees": 4896,
      "amongst": 4897,
      "championship": 4898,
      "collision": 4899,
      "guards": 4900,
      "balian": 4901,
      "factions": 4902,
      "twist": 4903,
      "honest": 4904,
      "holy": 4905,
      "developed": 4906,
      "bullitt": 4907,
      "boxing": 4908,
      "vengeful": 4909,
      "nickn": 4910,
      "origin": 4911,
      "loyalty": 4912,
      "superheroes": 4913,
      "hijackers": 4914,
      "titan": 4915,
      "##ihil": 4916,
      "summer": 4917,
      "summon": 4918,
      "costs": 4919,
      "buddhist": 4920,
      "1999": 4921,
      "mistaken": 4922,
      "senior": 4923,
      "ww2": 4924,
      "kidnappers": 4925,
      "patrick": 4926,
      "picked": 4927,
      "approach": 4928,
      "approaches": 4929,
      "sweet": 4930,
      "adventurer": 4931,
      "##coming": 4932,
      "enforcer": 4933,
      "connections": 4934,
      "sleep": 4935,
      "wasteland": 4936,
      "carlos": 4937,
      "emerges": 4938,
      "injust": 4939,
      "accompl": 4940,
      "neighborhood": 4941,
      "position": 4942,
      "##borne": 4943,
      "homicide": 4944,
      "epis": 4945,
      "ethan": 4946,
      "shuttle": 4947,
      "influence": 4948,
      "louis": 4949,
      "waters": 4950,
      "closer": 4951,
      "arranges": 4952,
      "mixed": 4953,
      "debt": 4954,
      "shinobi": 4955,
      "thriller": 4956,
      "routine": 4957,
      "mikey": 4958,
      "random": 4959,
      "intrigue": 4960,
      "advisor": 4961,
      "hollywood": 4962,
      "syndicate": 4963,
      "sacrifice": 4964,
      "haunted": 4965,
      "mewtwo": 4966,
      "enforcement": 4967,
      "##fighter": 4968,
      "enhanced": 4969,
      "academy": 4970,
      "meteor": 4971,
      "dellaplane": 4972,
      "miami": 4973,
      "##walker": 4974,
      "theodore": 4975,
      "although": 4976,
      "unaware": 4977,
      "surveillance": 4978,
      "detroit": 4979,
      "supermarket": 4980,
      "500": 4981,
      "72": 4982,
      "80": 4983,
      "ae": 4984,
      "ach": 4985,
      "aided": 4986,
      "bon": 4987,
      "ble": 4988,
      "cly": 4989,
      "cub": 4990,
      "cyn": 4991,
      "dag": 4992,
      "darth": 4993,
      "dawn": 4994,
      "either": 4995,
      "fit": 4996,
      "fif": 4997,
      "freak": 4998,
      "fix": 4999,
      "fired": 5000,
      "gary": 5001,
      "games": 5002,
      "hart": 5003,
      "hole": 5004,
      "homet": 5005,
      "jenny": 5006,
      "kit": 5007,
      "kun": 5008,
      "kog": 5009,
      "kings": 5010,
      "kelly": 5011,
      "krypt": 5012,
      "ly": 5013,
      "lon": 5014,
      "les": 5015,
      "lion": 5016,
      "mum": 5017,
      "mia": 5018,
      "mail": 5019,
      "nic": 5020,
      "nand": 5021,
      "pen": 5022,
      "pad": 5023,
      "pig": 5024,
      "ron": 5025,
      "ral": 5026,
      "rate": 5027,
      "round": 5028,
      "rape": 5029,
      "rush": 5030,
      "roper": 5031,
      "riley": 5032,
      "si": 5033,
      "sight": 5034,
      "sick": 5035,
      "saw": 5036,
      "saving": 5037,
      "saga": 5038,
      "tact": 5039,
      "tuck": 5040,
      "um": 5041,
      "vent": 5042,
      "voy": 5043,
      "vader": 5044,
      "wand": 5045,
      "wang": 5046,
      "wound": 5047,
      "wishes": 5048,
      "yul": 5049,
      "##ox": 5050,
      "##oze": 5051,
      "##nard": 5052,
      "##gb": 5053,
      "##gon": 5054,
      "##rison": 5055,
      "##ios": 5056,
      "##mel": 5057,
      "##main": 5058,
      "##more": 5059,
      "##mother": 5060,
      "##mond": 5061,
      "##lim": 5062,
      "##sp": 5063,
      "##set": 5064,
      "##ym": 5065,
      "##ford": 5066,
      "##field": 5067,
      "##cow": 5068,
      "##tab": 5069,
      "##town": 5070,
      "##hi": 5071,
      "##hold": 5072,
      "##bel": 5073,
      "##va": 5074,
      "##vy": 5075,
      "##vision": 5076,
      "##vada": 5077,
      "##pa": 5078,
      "##pires": 5079,
      "##kar": 5080,
      "##kete": 5081,
      "##wart": 5082,
      "##head": 5083,
      "##eral": 5084,
      "##iner": 5085,
      "##inity": 5086,
      "##ana": 5087,
      "toxic": 5088,
      "##isters": 5089,
      "##ati": 5090,
      "##itor": 5091,
      "##iting": 5092,
      "##itions": 5093,
      "##icates": 5094,
      "##iceless": 5095,
      "##outh": 5096,
      "iss": 5097,
      "isol": 5098,
      "##eld": 5099,
      "thwart": 5100,
      "##utation": 5101,
      "##ache": 5102,
      "##imer": 5103,
      "anak": 5104,
      "stories": 5105,
      "bei": 5106,
      "beam": 5107,
      "bever": 5108,
      "beij": 5109,
      "##illusion": 5110,
      "aspir": 5111,
      "deves": 5112,
      "repr": 5113,
      "trag": 5114,
      "troy": 5115,
      "trait": 5116,
      "pract": 5117,
      "priceless": 5118,
      "##opath": 5119,
      "seize": 5120,
      "##osl": 5121,
      "##ching": 5122,
      "least": 5123,
      "leary": 5124,
      "attra": 5125,
      "nevada": 5126,
      "concer": 5127,
      "brain": 5128,
      "broad": 5129,
      "aged": 5130,
      "agree": 5131,
      "shah": 5132,
      "loan": 5133,
      "##allion": 5134,
      "entr": 5135,
      "outf": 5136,
      "manip": 5137,
      "cred": 5138,
      "aftab": 5139,
      "ital": 5140,
      "intense": 5141,
      "spies": 5142,
      "spree": 5143,
      "sports": 5144,
      "spends": 5145,
      "##uman": 5146,
      "##umber": 5147,
      "grow": 5148,
      "grave": 5149,
      "grace": 5150,
      "grown": 5151,
      "growing": 5152,
      "dram": 5153,
      "##owned": 5154,
      "disgr": 5155,
      "disillusion": 5156,
      "##ichi": 5157,
      "teaches": 5158,
      "allan": 5159,
      "##ocks": 5160,
      "mog": 5161,
      "blof": 5162,
      "canada": 5163,
      "helpl": 5164,
      "carn": 5165,
      "##play": 5166,
      "clut": 5167,
      "advers": 5168,
      "adapt": 5169,
      "##olds": 5170,
      "scot": 5171,
      "wasn": 5172,
      "##achi": 5173,
      "##seless": 5174,
      "secure": 5175,
      "##reek": 5176,
      "capable": 5177,
      "capital": 5178,
      "##quel": 5179,
      "tried": 5180,
      "colomb": 5181,
      "empress": 5182,
      "##ffen": 5183,
      "desire": 5184,
      "quinn": 5185,
      "coach": 5186,
      "coff": 5187,
      "cooper": 5188,
      "throw": 5189,
      "thrown": 5190,
      "escal": 5191,
      "amount": 5192,
      "complex": 5193,
      "comprom": 5194,
      "stopping": 5195,
      "setting": 5196,
      "seeing": 5197,
      "recall": 5198,
      "returning": 5199,
      "swears": 5200,
      "playboy": 5201,
      "throughout": 5202,
      "moving": 5203,
      "skill": 5204,
      "headquar": 5205,
      "steffen": 5206,
      "slip": 5207,
      "driven": 5208,
      "charles": 5209,
      "charged": 5210,
      "angre": 5211,
      "learned": 5212,
      "filming": 5213,
      "maybe": 5214,
      "maynard": 5215,
      "belle": 5216,
      "##airs": 5217,
      "appre": 5218,
      "appear": 5219,
      "buy": 5220,
      "buff": 5221,
      "survived": 5222,
      "perm": 5223,
      "perpet": 5224,
      "samuel": 5225,
      "consider": 5226,
      "arrived": 5227,
      "meaning": 5228,
      "experienced": 5229,
      "convicts": 5230,
      "bandit": 5231,
      "gerard": 5232,
      "trev": 5233,
      "hoping": 5234,
      "operations": 5235,
      "object": 5236,
      "arrests": 5237,
      "involve": 5238,
      "brig": 5239,
      "hardy": 5240,
      "bombing": 5241,
      "regular": 5242,
      "bringing": 5243,
      "jean": 5244,
      "##ibly": 5245,
      "motiv": 5246,
      "motaba": 5247,
      "couldn": 5248,
      "solomon": 5249,
      "robotic": 5250,
      "companion": 5251,
      "gladi": 5252,
      "lara": 5253,
      "moral": 5254,
      "darkness": 5255,
      "medallion": 5256,
      "failing": 5257,
      "muskete": 5258,
      "civilian": 5259,
      "186": 5260,
      "expose": 5261,
      "stealing": 5262,
      "tyrant": 5263,
      "##ette": 5264,
      "buried": 5265,
      "cyber": 5266,
      "teenagers": 5267,
      "aval": 5268,
      "foster": 5269,
      "walker": 5270,
      "heavy": 5271,
      "targeted": 5272,
      "millionaire": 5273,
      "kirby": 5274,
      "bald": 5275,
      "tae": 5276,
      "announ": 5277,
      "merciless": 5278,
      "twin": 5279,
      "ambush": 5280,
      "estr": 5281,
      "##laim": 5282,
      "receive": 5283,
      "ideas": 5284,
      "vega": 5285,
      "divor": 5286,
      "direct": 5287,
      "2000": 5288,
      "grandfather": 5289,
      "aka": 5290,
      "authority": 5291,
      "rapid": 5292,
      "reputation": 5293,
      "intelligent": 5294,
      "schemes": 5295,
      "feelings": 5296,
      "genetic": 5297,
      "dispatched": 5298,
      "richards": 5299,
      "disasters": 5300,
      "monkey": 5301,
      "midst": 5302,
      "stuntman": 5303,
      "above": 5304,
      "interesting": 5305,
      "palace": 5306,
      "ranvir": 5307,
      "counterfe": 5308,
      "adventurers": 5309,
      "camera": 5310,
      "pretty": 5311,
      "contains": 5312,
      "circ": 5313,
      "cousins": 5314,
      "custody": 5315,
      "packed": 5316,
      "sacred": 5317,
      "dropped": 5318,
      "absence": 5319,
      "doomed": 5320,
      "suspicion": 5321,
      "berlin": 5322,
      "potential": 5323,
      "viking": 5324,
      "wipe": 5325,
      "##ascar": 5326,
      "surrounded": 5327,
      "initially": 5328,
      "##ribly": 5329,
      "orphaned": 5330,
      "skywalker": 5331,
      "shadowy": 5332,
      "sadistic": 5333,
      "wilder": 5334,
      "hundreds": 5335,
      "sequel": 5336,
      "skulls": 5337,
      "roller": 5338,
      "inex": 5339,
      "assumes": 5340,
      "miles": 5341,
      "ravaged": 5342,
      "elements": 5343,
      "asteroid": 5344,
      "exactly": 5345,
      "devastating": 5346,
      "iraq": 5347,
      "brazilian": 5348,
      "false": 5349,
      "network": 5350,
      "sabot": 5351,
      "alternate": 5352,
      "answers": 5353,
      "canton": 5354,
      "telep": 5355,
      "necessary": 5356,
      "befriends": 5357,
      "suspended": 5358,
      "sidekick": 5359,
      "catholic": 5360,
      "jonathan": 5361,
      "moscow": 5362,
      "##burg": 5363,
      "comrades": 5364,
      "scorp": 5365,
      "mystical": 5366,
      "equipment": 5367,
      "candidate": 5368,
      "invisible": 5369,
      "purpose": 5370,
      "rookie": 5371,
      "nightmare": 5372,
      "immortal": 5373,
      "salesman": 5374,
      "unknowingly": 5375,
      "riggs": 5376,
      "bachchan": 5377,
      "northern": 5378,
      "unemployed": 5379,
      "earthquake": 5380,
      "confederate": 5381,
      "obstacles": 5382,
      "magneto": 5383,
      "opportunity": 5384,
      "injustice": 5385,
      "hometown": 5386,
      "krypton": 5387,
      "voyage": 5388,
      "yulaw": 5389,
      "isolated": 5390,
      "anakin": 5391,
      "beverly": 5392,
      "beijing": 5393,
      "devesh": 5394,
      "tragic": 5395,
      "manipul": 5396,
      "blofeld": 5397,
      "helpless": 5398,
      "22": 5399,
      "24": 5400,
      "bot": 5401,
      "bay": 5402,
      "bure": 5403,
      "biz": 5404,
      "cod": 5405,
      "cob": 5406,
      "coc": 5407,
      "cock": 5408,
      "cale": 5409,
      "cities": 5410,
      "erupt": 5411,
      "fake": 5412,
      "fulf": 5413,
      "gul": 5414,
      "gavan": 5415,
      "hr": 5416,
      "hill": 5417,
      "holl": 5418,
      "hides": 5419,
      "iz": 5420,
      "iga": 5421,
      "izo": 5422,
      "jan": 5423,
      "junk": 5424,
      "ku": 5425,
      "ka": 5426,
      "kend": 5427,
      "kaur": 5428,
      "kgb": 5429,
      "lust": 5430,
      "lane": 5431,
      "mas": 5432,
      "mary": 5433,
      "mater": 5434,
      "morn": 5435,
      "nu": 5436,
      "nice": 5437,
      "names": 5438,
      "nunn": 5439,
      "ooze": 5440,
      "pure": 5441,
      "pok": 5442,
      "pict": 5443,
      "rs": 5444,
      "rong": 5445,
      "rik": 5446,
      "rises": 5447,
      "rita": 5448,
      "sak": 5449,
      "sach": 5450,
      "samp": 5451,
      "sah": 5452,
      "sisters": 5453,
      "tat": 5454,
      "tail": 5455,
      "ug": 5456,
      "wer": 5457,
      "wel": 5458,
      "wess": 5459,
      "your": 5460,
      "##oft": 5461,
      "##gart": 5462,
      "##uction": 5463,
      "##ez": 5464,
      "##eks": 5465,
      "##ao": 5466,
      "##aj": 5467,
      "##ror": 5468,
      "##rest": 5469,
      "##rass": 5470,
      "##rud": 5471,
      "##rants": 5472,
      "##iar": 5473,
      "##iod": 5474,
      "##iachi": 5475,
      "##mate": 5476,
      "##light": 5477,
      "##sk": 5478,
      "##sed": 5479,
      "##sky": 5480,
      "##fare": 5481,
      "##frey": 5482,
      "##cast": 5483,
      "##tar": 5484,
      "##tag": 5485,
      "##haps": 5486,
      "##ba": 5487,
      "##bs": 5488,
      "##bol": 5489,
      "##bul": 5490,
      "##brel": 5491,
      "##dan": 5492,
      "##dinary": 5493,
      "##jam": 5494,
      "##jection": 5495,
      "##vous": 5496,
      "##zy": 5497,
      "##zh": 5498,
      "##wan": 5499,
      "##80": 5500,
      "##13": 5501,
      "##hem": 5502,
      "##inawa": 5503,
      "##ani": 5504,
      "##ances": 5505,
      "##oric": 5506,
      "##isation": 5507,
      "##arre": 5508,
      "##arch": 5509,
      "##edly": 5510,
      "##aland": 5511,
      "##outs": 5512,
      "##asures": 5513,
      "thug": 5514,
      "thunder": 5515,
      "##acing": 5516,
      "##stal": 5517,
      "##urance": 5518,
      "hears": 5519,
      "##ima": 5520,
      "stock": 5521,
      "stones": 5522,
      "beating": 5523,
      "wits": 5524,
      "##lyn": 5525,
      "##lym": 5526,
      "asia": 5527,
      "alc": 5528,
      "ally": 5529,
      "alph": 5530,
      "##unning": 5531,
      "prat": 5532,
      "pros": 5533,
      "prith": 5534,
      "cham": 5535,
      "chasing": 5536,
      "chronic": 5537,
      "##agen": 5538,
      "##aining": 5539,
      "##eston": 5540,
      "league": 5541,
      "neha": 5542,
      "neither": 5543,
      "nefar": 5544,
      "archer": 5545,
      "conver": 5546,
      "##angel": 5547,
      "plant": 5548,
      "bron": 5549,
      "brook": 5550,
      "shang": 5551,
      "lovers": 5552,
      "unc": 5553,
      "outer": 5554,
      "cris": 5555,
      "crooks": 5556,
      "afgh": 5557,
      "afra": 5558,
      "##avia": 5559,
      "item": 5560,
      "exit": 5561,
      "spre": 5562,
      "##abh": 5563,
      "##abeth": 5564,
      "##ummer": 5565,
      "warfare": 5566,
      "socc": 5567,
      "##eller": 5568,
      "disl": 5569,
      "tec": 5570,
      "evely": 5571,
      "sheep": 5572,
      "shekh": 5573,
      "newcom": 5574,
      "ordinary": 5575,
      "meh": 5576,
      "meant": 5577,
      "##iple": 5578,
      "respected": 5579,
      "moor": 5580,
      "knock": 5581,
      "carries": 5582,
      "##izabeth": 5583,
      "##iously": 5584,
      "##issance": 5585,
      "proceed": 5586,
      "mariachi": 5587,
      "retreat": 5588,
      "pows": 5589,
      "understand": 5590,
      "peak": 5591,
      "##ailing": 5592,
      "triang": 5593,
      "mah": 5594,
      "weather": 5595,
      "weeks": 5596,
      "##enson": 5597,
      "##ogs": 5598,
      "##ogy": 5599,
      "desc": 5600,
      "usual": 5601,
      "quater": 5602,
      "murdering": 5603,
      "cool": 5604,
      "groups": 5605,
      "throne": 5606,
      "deadl": 5607,
      "prey": 5608,
      "deton": 5609,
      "details": 5610,
      "locks": 5611,
      "sett": 5612,
      "elwood": 5613,
      "elizabeth": 5614,
      "begun": 5615,
      "guilt": 5616,
      "191": 5617,
      "raf": 5618,
      "feat": 5619,
      "##fty": 5620,
      "access": 5621,
      "sentence": 5622,
      "movies": 5623,
      "harm": 5624,
      "harv": 5625,
      "harlem": 5626,
      "slim": 5627,
      "slater": 5628,
      "slaves": 5629,
      "drives": 5630,
      "charges": 5631,
      "flat": 5632,
      "flam": 5633,
      "infant": 5634,
      "##road": 5635,
      "protects": 5636,
      "below": 5637,
      "longer": 5638,
      "acts": 5639,
      "subur": 5640,
      "period": 5641,
      "perhaps": 5642,
      "searches": 5643,
      "artem": 5644,
      "happening": 5645,
      "petty": 5646,
      "sax": 5647,
      "##ancy": 5648,
      "chef": 5649,
      "edward": 5650,
      "rebu": 5651,
      "hostile": 5652,
      "##uchi": 5653,
      "depict": 5654,
      "godfrey": 5655,
      "brief": 5656,
      "miller": 5657,
      "install": 5658,
      "benef": 5659,
      "merch": 5660,
      "vision": 5661,
      "visits": 5662,
      "mutiny": 5663,
      "launch": 5664,
      "standing": 5665,
      "larger": 5666,
      "snake": 5667,
      "ops": 5668,
      "colonial": 5669,
      "oppon": 5670,
      "opposed": 5671,
      "oppress": 5672,
      "##ova": 5673,
      "##bean": 5674,
      "popul": 5675,
      "ruins": 5676,
      "questions": 5677,
      "effect": 5678,
      "sharp": 5679,
      "187": 5680,
      "roger": 5681,
      "rogers": 5682,
      "expensive": 5683,
      "tracks": 5684,
      "strip": 5685,
      "current": 5686,
      "relationships": 5687,
      "ensl": 5688,
      "impact": 5689,
      "austin": 5690,
      "gaining": 5691,
      "raging": 5692,
      "ragtag": 5693,
      "irres": 5694,
      "##otte": 5695,
      "employer": 5696,
      "brutality": 5697,
      "balance": 5698,
      "khanna": 5699,
      "smugglers": 5700,
      "model": 5701,
      "diego": 5702,
      "villains": 5703,
      "desperately": 5704,
      "saved": 5705,
      "divided": 5706,
      "trucker": 5707,
      "assistant": 5708,
      "charlotte": 5709,
      "lesson": 5710,
      "maintain": 5711,
      "shortly": 5712,
      "grandmother": 5713,
      "movement": 5714,
      "claire": 5715,
      "souls": 5716,
      "delivery": 5717,
      "addition": 5718,
      "neighb": 5719,
      "judge": 5720,
      "pieces": 5721,
      "senator": 5722,
      "explosive": 5723,
      "hammond": 5724,
      "pulled": 5725,
      "choose": 5726,
      "challenged": 5727,
      "punish": 5728,
      "bikers": 5729,
      "excav": 5730,
      "adopt": 5731,
      "pretends": 5732,
      "frontier": 5733,
      "obser": 5734,
      "embarrass": 5735,
      "signs": 5736,
      "spectre": 5737,
      "senses": 5738,
      "wiped": 5739,
      "physical": 5740,
      "tribes": 5741,
      "krill": 5742,
      "zealand": 5743,
      "slaying": 5744,
      "jewel": 5745,
      "homicidal": 5746,
      "documents": 5747,
      "ghosts": 5748,
      "##power": 5749,
      "sequences": 5750,
      "claims": 5751,
      "cowboys": 5752,
      "draws": 5753,
      "laboratory": 5754,
      "seasoned": 5755,
      "unleash": 5756,
      "unleashed": 5757,
      "warlords": 5758,
      "negotiator": 5759,
      "romeo": 5760,
      "resurrection": 5761,
      "symp": 5762,
      "establish": 5763,
      "culpr": 5764,
      "unwitting": 5765,
      "treacherous": 5766,
      "volcano": 5767,
      "diabol": 5768,
      "gorilla": 5769,
      "okinawa": 5770,
      "television": 5771,
      "horrific": 5772,
      "obsessed": 5773,
      "fictional": 5774,
      "jaide": 5775,
      "total": 5776,
      "spanish": 5777,
      "scanners": 5778,
      "apparently": 5779,
      "billionaire": 5780,
      "sorcerer": 5781,
      "gigantic": 5782,
      "henchman": 5783,
      "langu": 5784,
      "paid": 5785,
      "commissioner": 5786,
      "sweepers": 5787,
      "grieving": 5788,
      "risk": 5789,
      "woods": 5790,
      "pressure": 5791,
      "##ivaji": 5792,
      "adolescent": 5793,
      "executive": 5794,
      "aaron": 5795,
      "hiram": 5796,
      "likes": 5797,
      "nasa": 5798,
      "nurse": 5799,
      "wonder": 5800,
      "split": 5801,
      "drinking": 5802,
      "episode": 5803,
      "cynical": 5804,
      "koga": 5805,
      "mummy": 5806,
      "umbrel": 5807,
      "issues": 5808,
      "attraction": 5809,
      "italian": 5810,
      "clutches": 5811,
      "perpetr": 5812,
      "estranged": 5813,
      "wilderness": 5814,
      "bizarre": 5815,
      "cocaine": 5816,
      "kaurwaki": 5817,
      "pokemon": 5818,
      "ugly": 5819,
      "wessinger": 5820,
      "prithvi": 5821,
      "nefarious": 5822,
      "brooklyn": 5823,
      "afraid": 5824,
      "soccer": 5825,
      "evelyn": 5826,
      "shekhar": 5827,
      "quatermain": 5828,
      "umbrella": 5829,
      "47": 5830,
      "44": 5831,
      "aur": 5832,
      "aish": 5833,
      "aces": 5834,
      "bes": 5835,
      "bed": 5836,
      "bid": 5837,
      "bones": 5838,
      "bott": 5839,
      "bitten": 5840,
      "cos": 5841,
      "cort": 5842,
      "cody": 5843,
      "dil": 5844,
      "das": 5845,
      "dod": 5846,
      "dust": 5847,
      "dance": 5848,
      "dail": 5849,
      "duck": 5850,
      "era": 5851,
      "fed": 5852,
      "fend": 5853,
      "fisher": 5854,
      "git": 5855,
      "gri": 5856,
      "gate": 5857,
      "gates": 5858,
      "gaur": 5859,
      "gift": 5860,
      "hig": 5861,
      "haz": 5862,
      "hock": 5863,
      "ic": 5864,
      "jord": 5865,
      "jason": 5866,
      "kak": 5867,
      "kyle": 5868,
      "lic": 5869,
      "lam": 5870,
      "lack": 5871,
      "lily": 5872,
      "lai": 5873,
      "lib": 5874,
      "mes": 5875,
      "math": 5876,
      "mick": 5877,
      "ober": 5878,
      "obi": 5879,
      "pas": 5880,
      "pard": 5881,
      "pally": 5882,
      "rol": 5883,
      "rif": 5884,
      "rio": 5885,
      "ridden": 5886,
      "rosa": 5887,
      "sher": 5888,
      "sout": 5889,
      "sidd": 5890,
      "tas": 5891,
      "tong": 5892,
      "tah": 5893,
      "tib": 5894,
      "taught": 5895,
      "tiger": 5896,
      "useless": 5897,
      "vul": 5898,
      "vend": 5899,
      "wu": 5900,
      "wy": 5901,
      "woo": 5902,
      "wield": 5903,
      "ye": 5904,
      "yellow": 5905,
      "zack": 5906,
      "zoo": 5907,
      "##oe": 5908,
      "##oi": 5909,
      "##oen": 5910,
      "##night": 5911,
      "##nish": 5912,
      "##uf": 5913,
      "##uation": 5914,
      "##uable": 5915,
      "##eed": 5916,
      "##roc": 5917,
      "##raged": 5918,
      "##iat": 5919,
      "##iates": 5920,
      "##mese": 5921,
      "##life": 5922,
      "##fly": 5923,
      "##fall": 5924,
      "##fred": 5925,
      "##cil": 5926,
      "##case": 5927,
      "##cked": 5928,
      "##cape": 5929,
      "##tock": 5930,
      "##hai": 5931,
      "##bal": 5932,
      "##burn": 5933,
      "##bourne": 5934,
      "##dy": 5935,
      "##don": 5936,
      "##just": 5937,
      "##view": 5938,
      "##ply": 5939,
      "##kl": 5940,
      "##hecy": 5941,
      "##inent": 5942,
      "##ination": 5943,
      "##esar": 5944,
      "##oro": 5945,
      "##ori": 5946,
      "##oral": 5947,
      "##orado": 5948,
      "##isman": 5949,
      "##ares": 5950,
      "##arily": 5951,
      "##aroo": 5952,
      "##eda": 5953,
      "##eding": 5954,
      "##alry": 5955,
      "##itation": 5956,
      "##itect": 5957,
      "##itted": 5958,
      "##itarian": 5959,
      "##itabh": 5960,
      "##iler": 5961,
      "##icons": 5962,
      "##icating": 5963,
      "##asingly": 5964,
      "##etic": 5965,
      "##ste": 5966,
      "##olas": 5967,
      "##urer": 5968,
      "heal": 5969,
      "##imes": 5970,
      "whate": 5971,
      "##oty": 5972,
      "analy": 5973,
      "stab": 5974,
      "stry": 5975,
      "bear": 5976,
      "forg": 5977,
      "##adel": 5978,
      "##adition": 5979,
      "##rial": 5980,
      "##iday": 5981,
      "##igley": 5982,
      "ashe": 5983,
      "rea": 5984,
      "reaches": 5985,
      "fresh": 5986,
      "alask": 5987,
      "alche": 5988,
      "trom": 5989,
      "traged": 5990,
      "trinity": 5991,
      "tradition": 5992,
      "##opian": 5993,
      "chair": 5994,
      "chips": 5995,
      "##agn": 5996,
      "##ando": 5997,
      "##andest": 5998,
      "herman": 5999,
      "##emned": 6000,
      "conce": 6001,
      "##ifies": 6002,
      "##angi": 6003,
      "ages": 6004,
      "aggr": 6005,
      "shak": 6006,
      "shown": 6007,
      "shog": 6008,
      "lov": 6009,
      "##antis": 6010,
      "##antage": 6011,
      "enorm": 6012,
      "outcast": 6013,
      "manner": 6014,
      "cruc": 6015,
      "exh": 6016,
      "spo": 6017,
      "spr": 6018,
      "spring": 6019,
      "##abe": 6020,
      "##umble": 6021,
      "warning": 6022,
      "warden": 6023,
      "grues": 6024,
      "graff": 6025,
      "##cogn": 6026,
      "measures": 6027,
      "beck": 6028,
      "##assy": 6029,
      "##assad": 6030,
      "reser": 6031,
      "resol": 6032,
      "monday": 6033,
      "block": 6034,
      "blond": 6035,
      "cancer": 6036,
      "##ption": 6037,
      "helm": 6038,
      "knew": 6039,
      "##ments": 6040,
      "carib": 6041,
      "##plic": 6042,
      "clay": 6043,
      "clum": 6044,
      "clue": 6045,
      "cloud": 6046,
      "clandest": 6047,
      "adit": 6048,
      "invaded": 6049,
      "attend": 6050,
      "attached": 6051,
      "##issary": 6052,
      "terms": 6053,
      "terangi": 6054,
      "##icken": 6055,
      "##appy": 6056,
      "surg": 6057,
      "marl": 6058,
      "marian": 6059,
      "##orde": 6060,
      "##orda": 6061,
      "triads": 6062,
      "##actic": 6063,
      "##active": 6064,
      "nowhere": 6065,
      "stranger": 6066,
      "parties": 6067,
      "desolate": 6068,
      "descend": 6069,
      "uss": 6070,
      "quigley": 6071,
      "amus": 6072,
      "amitabh": 6073,
      "deaths": 6074,
      "hunts": 6075,
      "hunley": 6076,
      "girls": 6077,
      "indeed": 6078,
      "compat": 6079,
      "smart": 6080,
      "destined": 6081,
      "stops": 6082,
      "locals": 6083,
      "escaping": 6084,
      "parent": 6085,
      "guid": 6086,
      "guine": 6087,
      "##azing": 6088,
      "superpow": 6089,
      "192": 6090,
      "corb": 6091,
      "##atern": 6092,
      "devious": 6093,
      "raising": 6094,
      "reck": 6095,
      "recent": 6096,
      "johnson": 6097,
      "johnathan": 6098,
      "county": 6099,
      "council": 6100,
      "swit": 6101,
      "swiss": 6102,
      "keek": 6103,
      "everybody": 6104,
      "players": 6105,
      "moved": 6106,
      "acrob": 6107,
      "harley": 6108,
      "towns": 6109,
      "slick": 6110,
      "flow": 6111,
      "interfer": 6112,
      "destroys": 6113,
      "protected": 6114,
      "pride": 6115,
      "capturing": 6116,
      "busy": 6117,
      "remember": 6118,
      "appo": 6119,
      "apprent": 6120,
      "sincl": 6121,
      "subway": 6122,
      "samar": 6123,
      "phoen": 6124,
      "barg": 6125,
      "bars": 6126,
      "ships": 6127,
      "fourth": 6128,
      "arriving": 6129,
      "artists": 6130,
      "artific": 6131,
      "roam": 6132,
      "biggest": 6133,
      "creating": 6134,
      "wanting": 6135,
      "nightcl": 6136,
      "bloodl": 6137,
      "##ancing": 6138,
      "assigns": 6139,
      "check": 6140,
      "chekov": 6141,
      "written": 6142,
      "tread": 6143,
      "hitmen": 6144,
      "politics": 6145,
      "obvious": 6146,
      "complications": 6147,
      "nearby": 6148,
      "involves": 6149,
      "##arek": 6150,
      "gods": 6151,
      "brid": 6152,
      "bribes": 6153,
      "hardened": 6154,
      "bombay": 6155,
      "regain": 6156,
      "dreaded": 6157,
      "showing": 6158,
      "jeff": 6159,
      "mutual": 6160,
      "animal": 6161,
      "include": 6162,
      "realizing": 6163,
      "badal": 6164,
      "talisman": 6165,
      "releasing": 6166,
      "glass": 6167,
      "larry": 6168,
      "largest": 6169,
      "simply": 6170,
      "raja": 6171,
      "russians": 6172,
      "babys": 6173,
      "frankie": 6174,
      "christine": 6175,
      "muslim": 6176,
      "crosses": 6177,
      "rukh": 6178,
      "promising": 6179,
      "sharon": 6180,
      "catwoman": 6181,
      "defender": 6182,
      "psychic": 6183,
      "psychopath": 6184,
      "earp": 6185,
      "patient": 6186,
      "tracking": 6187,
      "renowned": 6188,
      "tomb": 6189,
      "personality": 6190,
      "burmese": 6191,
      "cursed": 6192,
      "turbul": 6193,
      "communist": 6194,
      "foes": 6195,
      "mcclin": 6196,
      "improve": 6197,
      "mount": 6198,
      "think": 6199,
      "ensure": 6200,
      "rocky": 6201,
      "walter": 6202,
      "deepak": 6203,
      "dutt": 6204,
      "prophecy": 6205,
      "employee": 6206,
      "disappears": 6207,
      "guardian": 6208,
      "taft": 6209,
      "annie": 6210,
      "revolves": 6211,
      "twenty": 6212,
      "valuable": 6213,
      "ambassad": 6214,
      "estate": 6215,
      "received": 6216,
      "crashing": 6217,
      "dogs": 6218,
      "savage": 6219,
      "researcher": 6220,
      "lui": 6221,
      "architect": 6222,
      "sudden": 6223,
      "auto": 6224,
      "condemned": 6225,
      "radiation": 6226,
      "delivers": 6227,
      "cultural": 6228,
      "equal": 6229,
      "satan": 6230,
      "andrea": 6231,
      "mistake": 6232,
      "mighty": 6233,
      "execution": 6234,
      "battleship": 6235,
      "explosives": 6236,
      "marshall": 6237,
      "1000": 6238,
      "federal": 6239,
      "julien": 6240,
      "matthew": 6241,
      "ricky": 6242,
      "fantastic": 6243,
      "moment": 6244,
      "discip": 6245,
      "##pressed": 6246,
      "gunsling": 6247,
      "revealed": 6248,
      "circus": 6249,
      "emerge": 6250,
      "liner": 6251,
      "riders": 6252,
      "participants": 6253,
      "sensitive": 6254,
      "injured": 6255,
      "rebellious": 6256,
      "countries": 6257,
      "hideout": 6258,
      "##load": 6259,
      "attractive": 6260,
      "slayer": 6261,
      "pursues": 6262,
      "supposedly": 6263,
      "didn": 6264,
      "atlantic": 6265,
      "december": 6266,
      "virtual": 6267,
      "silverstone": 6268,
      "airlines": 6269,
      "cabot": 6270,
      "hurt": 6271,
      "mongol": 6272,
      "graboids": 6273,
      "enlisted": 6274,
      "doub": 6275,
      "symbol": 6276,
      "opposing": 6277,
      "establ": 6278,
      "astronauts": 6279,
      "culmin": 6280,
      "gaya": 6281,
      "railway": 6282,
      "tortured": 6283,
      "decepticons": 6284,
      "draco": 6285,
      "increasingly": 6286,
      "treachery": 6287,
      "archaeologist": 6288,
      "##vania": 6289,
      "athlet": 6290,
      "emotional": 6291,
      "methods": 6292,
      "immigrants": 6293,
      "particularly": 6294,
      "conductor": 6295,
      "21st": 6296,
      "diplomatic": 6297,
      "jesse": 6298,
      "multiple": 6299,
      "obliter": 6300,
      "primitive": 6301,
      "subsequently": 6302,
      "cavalry": 6303,
      "wreck": 6304,
      "nephew": 6305,
      "resource": 6306,
      "independence": 6307,
      "occupied": 6308,
      "vehicle": 6309,
      "economic": 6310,
      "prosecut": 6311,
      "fierce": 6312,
      "antonio": 6313,
      "neutral": 6314,
      "consequences": 6315,
      "##aborate": 6316,
      "##ocratic": 6317,
      "peasants": 6318,
      "conscience": 6319,
      "financial": 6320,
      "romulus": 6321,
      "maximum": 6322,
      "property": 6323,
      "autobots": 6324,
      "avenger": 6325,
      "bunny": 6326,
      "ichi": 6327,
      "ripley": 6328,
      "frustr": 6329,
      "individual": 6330,
      "templar": 6331,
      "nicknamed": 6332,
      "clyde": 6333,
      "ralph": 6334,
      "wounds": 6335,
      "repres": 6336,
      "disillusioned": 6337,
      "cooperate": 6338,
      "headquarters": 6339,
      "apprehend": 6340,
      "involvement": 6341,
      "gladiator": 6342,
      "bureau": 6343,
      "cocky": 6344,
      "material": 6345,
      "sakina": 6346,
      "sampson": 6347,
      "werner": 6348,
      "alpha": 6349,
      "pratap": 6350,
      "chronicles": 6351,
      "shanghai": 6352,
      "afghan": 6353,
      "triangle": 6354,
      "rebuild": 6355,
      "diabolical": 6356,
      "cosm": 6357,
      "daily": 6358,
      "libr": 6359,
      "siddh": 6360,
      "wielding": 6361,
      "whatever": 6362,
      "analyst": 6363,
      "stryker": 6364,
      "shogun": 6365,
      "enormous": 6366,
      "gruesome": 6367,
      "caribbean": 6368,
      "superpowers": 6369,
      "sinclair": 6370,
      "phoenix": 6371,
      "artificial": 6372,
      "nightclub": 6373,
      "mcclintock": 6374,
      "36": 6375,
      "93": 6376,
      "aub": 6377,
      "aunt": 6378,
      "bav": 6379,
      "bast": 6380,
      "bord": 6381,
      "bison": 6382,
      "bills": 6383,
      "ced": 6384,
      "cot": 6385,
      "cull": 6386,
      "cunning": 6387,
      "da": 6388,
      "dul": 6389,
      "dive": 6390,
      "dian": 6391,
      "doy": 6392,
      "duc": 6393,
      "ditch": 6394,
      "dwar": 6395,
      "eas": 6396,
      "easter": 6397,
      "etern": 6398,
      "fell": 6399,
      "fame": 6400,
      "fern": 6401,
      "fift": 6402,
      "fishing": 6403,
      "fogg": 6404,
      "ga": 6405,
      "gent": 6406,
      "gem": 6407,
      "gob": 6408,
      "gaul": 6409,
      "gym": 6410,
      "hang": 6411,
      "hans": 6412,
      "hook": 6413,
      "ibel": 6414,
      "jes": 6415,
      "jett": 6416,
      "jenn": 6417,
      "kat": 6418,
      "kent": 6419,
      "kag": 6420,
      "kish": 6421,
      "kling": 6422,
      "kesh": 6423,
      "kuru": 6424,
      "lud": 6425,
      "lake": 6426,
      "lyle": 6427,
      "mang": 6428,
      "moses": 6429,
      "ned": 6430,
      "nam": 6431,
      "nations": 6432,
      "nascar": 6433,
      "ou": 6434,
      "olym": 6435,
      "pits": 6436,
      "pitch": 6437,
      "rot": 6438,
      "riv": 6439,
      "rub": 6440,
      "sugg": 6441,
      "sars": 6442,
      "sunk": 6443,
      "size": 6444,
      "tan": 6445,
      "till": 6446,
      "ties": 6447,
      "tide": 6448,
      "tatt": 6449,
      "tets": 6450,
      "tiny": 6451,
      "vl": 6452,
      "ven": 6453,
      "vid": 6454,
      "via": 6455,
      "wear": 6456,
      "wander": 6457,
      "yu": 6458,
      "yard": 6459,
      "zion": 6460,
      "zordon": 6461,
      "zato": 6462,
      "##ozen": 6463,
      "##ni": 6464,
      "##uo": 6465,
      "##uate": 6466,
      "##ublic": 6467,
      "##eal": 6468,
      "##egr": 6469,
      "##rack": 6470,
      "##rous": 6471,
      "##rist": 6472,
      "##rich": 6473,
      "##rage": 6474,
      "##rine": 6475,
      "##rane": 6476,
      "##rising": 6477,
      "##iper": 6478,
      "##mat": 6479,
      "##mir": 6480,
      "##mun": 6481,
      "##math": 6482,
      "##maker": 6483,
      "##morda": 6484,
      "##lon": 6485,
      "##lun": 6486,
      "##lock": 6487,
      "##sia": 6488,
      "##yers": 6489,
      "##yard": 6490,
      "##fight": 6491,
      "##fort": 6492,
      "##cp": 6493,
      "##cru": 6494,
      "##ta": 6495,
      "##toman": 6496,
      "##hy": 6497,
      "##human": 6498,
      "##hagen": 6499,
      "##bag": 6500,
      "##bie": 6501,
      "##brid": 6502,
      "##dog": 6503,
      "##ju": 6504,
      "##juki": 6505,
      "##zan": 6506,
      "##zens": 6507,
      "##zona": 6508,
      "##xmi": 6509,
      "##py": 6510,
      "##pired": 6511,
      "##pulous": 6512,
      "##paper": 6513,
      "##01": 6514,
      "##wit": 6515,
      "##wol": 6516,
      "##47": 6517,
      "##heal": 6518,
      "ther": 6519,
      "##ero": 6520,
      "##erous": 6521,
      "##inct": 6522,
      "##inations": 6523,
      "##incts": 6524,
      "##oning": 6525,
      "##onse": 6526,
      "##org": 6527,
      "##orig": 6528,
      "##ormer": 6529,
      "##orrow": 6530,
      "toa": 6531,
      "tok": 6532,
      "##isf": 6533,
      "##atown": 6534,
      "##atron": 6535,
      "##arts": 6536,
      "##arms": 6537,
      "##enc": 6538,
      "##enhagen": 6539,
      "##edev": 6540,
      "anderson": 6541,
      "##inga": 6542,
      "inject": 6543,
      "##alem": 6544,
      "##itland": 6545,
      "##ils": 6546,
      "##ication": 6547,
      "##asi": 6548,
      "isla": 6549,
      "##etan": 6550,
      "thorn": 6551,
      "##acelet": 6552,
      "##step": 6553,
      "##urally": 6554,
      "##imp": 6555,
      "##imate": 6556,
      "##iro": 6557,
      "##irm": 6558,
      "##amante": 6559,
      "##lewood": 6560,
      "anant": 6561,
      "anonymous": 6562,
      "sty": 6563,
      "stir": 6564,
      "stav": 6565,
      "stakes": 6566,
      "staff": 6567,
      "beans": 6568,
      "beach": 6569,
      "beasts": 6570,
      "##adha": 6571,
      "##rier": 6572,
      "##right": 6573,
      "##vey": 6574,
      "##idon": 6575,
      "##iders": 6576,
      "asian": 6577,
      "reese": 6578,
      "repe": 6579,
      "rejo": 6580,
      "rejection": 6581,
      "franta": 6582,
      "fratern": 6583,
      "frozen": 6584,
      "tra": 6585,
      "traut": 6586,
      "trunk": 6587,
      "price": 6588,
      "preston": 6589,
      "##opher": 6590,
      "##opard": 6591,
      "sept": 6592,
      "chi": 6593,
      "chon": 6594,
      "chal": 6595,
      "chim": 6596,
      "chad": 6597,
      "chain": 6598,
      "whether": 6599,
      "##osis": 6600,
      "##osal": 6601,
      "##osely": 6602,
      "##aints": 6603,
      "##using": 6604,
      "##usalem": 6605,
      "levels": 6606,
      "atom": 6607,
      "arise": 6608,
      "##inda": 6609,
      "hercul": 6610,
      "##emption": 6611,
      "placed": 6612,
      "brody": 6613,
      "bracelet": 6614,
      "hasn": 6615,
      "shank": 6616,
      "shash": 6617,
      "loosely": 6618,
      "##antically": 6619,
      "##ender": 6620,
      "##ieval": 6621,
      "unin": 6622,
      "unus": 6623,
      "enzo": 6624,
      "enroll": 6625,
      "enzy": 6626,
      "enraged": 6627,
      "manj": 6628,
      "manch": 6629,
      "manny": 6630,
      "manuf": 6631,
      "cra": 6632,
      "crush": 6633,
      "croft": 6634,
      "goon": 6635,
      "expected": 6636,
      "exiled": 6637,
      "exotic": 6638,
      "intention": 6639,
      "spike": 6640,
      "##ables": 6641,
      "##abouts": 6642,
      "upside": 6643,
      "##perienced": 6644,
      "aftermath": 6645,
      "##ello": 6646,
      "##arded": 6647,
      "disast": 6648,
      "disrupt": 6649,
      "display": 6650,
      "##ichrist": 6651,
      "abr": 6652,
      "abb": 6653,
      "abuse": 6654,
      "aborig": 6655,
      "evac": 6656,
      "evict": 6657,
      "takumi": 6658,
      "getaway": 6659,
      "sheik": 6660,
      "##astrop": 6661,
      "megan": 6662,
      "offer": 6663,
      "offered": 6664,
      "resign": 6665,
      "dozens": 6666,
      "blest": 6667,
      "canal": 6668,
      "helen": 6669,
      "knives": 6670,
      "carver": 6671,
      "cargo": 6672,
      "carbon": 6673,
      "note": 6674,
      "##udy": 6675,
      "clown": 6676,
      "clock": 6677,
      "cliff": 6678,
      "##oryo": 6679,
      "adult": 6680,
      "admin": 6681,
      "invading": 6682,
      "scroll": 6683,
      "##attan": 6684,
      "boston": 6685,
      "proof": 6686,
      "surfer": 6687,
      "whereabouts": 6688,
      "decor": 6689,
      "decis": 6690,
      "capsu": 6691,
      "armies": 6692,
      "armour": 6693,
      "undert": 6694,
      "image": 6695,
      "##retti": 6696,
      "colt": 6697,
      "empt": 6698,
      "maitland": 6699,
      "copenhagen": 6700,
      "strain": 6701,
      "strict": 6702,
      "coven": 6703,
      "thrust": 6704,
      "throws": 6705,
      "##ignment": 6706,
      "downtown": 6707,
      "ammun": 6708,
      "prem": 6709,
      "powered": 6710,
      "powerless": 6711,
      "menace": 6712,
      "seth": 6713,
      "missionaries": 6714,
      "elude": 6715,
      "elora": 6716,
      "elusive": 6717,
      "superv": 6718,
      "runner": 6719,
      "devgan": 6720,
      "##ocket": 6721,
      "rafe": 6722,
      "recl": 6723,
      "battlefield": 6724,
      "highland": 6725,
      "protagon": 6726,
      "prototy": 6727,
      "fei": 6728,
      "swed": 6729,
      "swall": 6730,
      "stark": 6731,
      "starship": 6732,
      "chinatown": 6733,
      "kept": 6734,
      "everywhere": 6735,
      "harvey": 6736,
      "cream": 6737,
      "stev": 6738,
      "stealth": 6739,
      "slaughter": 6740,
      "contem": 6741,
      "contend": 6742,
      "anymore": 6743,
      "interp": 6744,
      "##orna": 6745,
      "heroine": 6746,
      "mineral": 6747,
      "persian": 6748,
      "monks": 6749,
      "##iere": 6750,
      "presence": 6751,
      "presumed": 6752,
      "inspired": 6753,
      "transm": 6754,
      "transyl": 6755,
      "evening": 6756,
      "humanoid": 6757,
      "prior": 6758,
      "captiv": 6759,
      "captures": 6760,
      "bush": 6761,
      "remo": 6762,
      "remove": 6763,
      "memph": 6764,
      "thanks": 6765,
      "blacksm": 6766,
      "syd": 6767,
      "bonds": 6768,
      "puri": 6769,
      "purch": 6770,
      "##ricks": 6771,
      "laws": 6772,
      "lawman": 6773,
      "airborne": 6774,
      "finnish": 6775,
      "poacher": 6776,
      "points": 6777,
      "profion": 6778,
      "saab": 6779,
      "##ancer": 6780,
      "cheung": 6781,
      "fuel": 6782,
      "werewol": 6783,
      "trem": 6784,
      "trey": 6785,
      "controls": 6786,
      "oboro": 6787,
      "arrog": 6788,
      "peacekeeper": 6789,
      "magn": 6790,
      "maggie": 6791,
      "magadha": 6792,
      "racers": 6793,
      "racist": 6794,
      "suppor": 6795,
      "hardship": 6796,
      "instantly": 6797,
      "instructed": 6798,
      "explode": 6799,
      "##porary": 6800,
      "dread": 6801,
      "benjam": 6802,
      "mutated": 6803,
      "legends": 6804,
      "motives": 6805,
      "embassy": 6806,
      "solar": 6807,
      "entered": 6808,
      "laid": 6809,
      "laxmi": 6810,
      "badly": 6811,
      "redemption": 6812,
      "talent": 6813,
      "##oof": 6814,
      "recruit": 6815,
      "profession": 6816,
      "sniper": 6817,
      "shootout": 6818,
      "opening": 6819,
      "202": 6820,
      "morris": 6821,
      "ashok": 6822,
      "streetwise": 6823,
      "identities": 6824,
      "identify": 6825,
      "babu": 6826,
      "medieval": 6827,
      "ramsey": 6828,
      "antichrist": 6829,
      "witnessed": 6830,
      "wildlife": 6831,
      "promise": 6832,
      "sharks": 6833,
      "catches": 6834,
      "catastrop": 6835,
      "squire": 6836,
      "builds": 6837,
      "neverthe": 6838,
      "drivers": 6839,
      "psychologist": 6840,
      "typ": 6841,
      "tyler": 6842,
      "tycoon": 6843,
      "##naissance": 6844,
      "rivalry": 6845,
      "tommy": 6846,
      "tomorrow": 6847,
      "hearted": 6848,
      "computers": 6849,
      "personalities": 6850,
      "burke": 6851,
      "burma": 6852,
      "possibly": 6853,
      "##nedy": 6854,
      "ryu": 6855,
      "ensn": 6856,
      "karen": 6857,
      "karel": 6858,
      "deeply": 6859,
      "huang": 6860,
      "alexander": 6861,
      "confronted": 6862,
      "navig": 6863,
      "policemen": 6864,
      "erin": 6865,
      "tax": 6866,
      "tajuki": 6867,
      "annihil": 6868,
      "baseball": 6869,
      "modified": 6870,
      "minds": 6871,
      "changed": 6872,
      "ambul": 6873,
      "storms": 6874,
      "uneasy": 6875,
      "internal": 6876,
      "darren": 6877,
      "daredev": 6878,
      "flees": 6879,
      "fleet": 6880,
      "silent": 6881,
      "refuse": 6882,
      "salvation": 6883,
      "committing": 6884,
      "contacts": 6885,
      "perfection": 6886,
      "brew": 6887,
      "lux": 6888,
      "sunset": 6889,
      "tasked": 6890,
      "constant": 6891,
      "assisted": 6892,
      "micro": 6893,
      "micheal": 6894,
      "origins": 6895,
      "reaching": 6896,
      "akira": 6897,
      "raped": 6898,
      "kingdoms": 6899,
      "landscape": 6900,
      "veterans": 6901,
      "paths": 6902,
      "##ihara": 6903,
      "republic": 6904,
      "response": 6905,
      "boards": 6906,
      "transported": 6907,
      "imprisonment": 6908,
      "culture": 6909,
      "damage": 6910,
      "damaged": 6911,
      "equally": 6912,
      "fortun": 6913,
      "corporate": 6914,
      "experimental": 6915,
      "designer": 6916,
      "1941": 6917,
      "swordsmen": 6918,
      "revolutionaries": 6919,
      "hellboy": 6920,
      "july": 6921,
      "tangles": 6922,
      "tanglewood": 6923,
      "outlaws": 6924,
      "newspaper": 6925,
      "dirt": 6926,
      "hackers": 6927,
      "bradamante": 6928,
      "barbar": 6929,
      "barbarian": 6930,
      "possessed": 6931,
      "possession": 6932,
      "gabe": 6933,
      "linked": 6934,
      "mi6": 6935,
      "unscru": 6936,
      "drops": 6937,
      "1985": 6938,
      "certainly": 6939,
      "kennedy": 6940,
      "vikings": 6941,
      "physically": 6942,
      "abducts": 6943,
      "citizen": 6944,
      "biological": 6945,
      "jerusalem": 6946,
      "verge": 6947,
      "verma": 6948,
      "##ribution": 6949,
      "trusted": 6950,
      "orphanage": 6951,
      "megatron": 6952,
      "respective": 6953,
      "electronic": 6954,
      "pakistani": 6955,
      "banks": 6956,
      "hearts": 6957,
      "producer": 6958,
      "attracts": 6959,
      "attracted": 6960,
      "conquer": 6961,
      "weekend": 6962,
      "seriously": 6963,
      "jewish": 6964,
      "jewels": 6965,
      "haven": 6966,
      "##atraz": 6967,
      "atlanta": 6968,
      "atlantis": 6969,
      "influential": 6970,
      "cardinal": 6971,
      "kalinga": 6972,
      "selene": 6973,
      "inev": 6974,
      "deserted": 6975,
      "arranged": 6976,
      "virtually": 6977,
      "mongo": 6978,
      "inmate": 6979,
      "concorde": 6980,
      "implicated": 6981,
      "settlement": 6982,
      "acquired": 6983,
      "durga": 6984,
      "shocking": 6985,
      "words": 6986,
      "resurrect": 6987,
      "opposition": 6988,
      "14th": 6989,
      "painting": 6990,
      "railroad": 6991,
      "wolver": 6992,
      "##rinks": 6993,
      "stalked": 6994,
      "reunite": 6995,
      "reunited": 6996,
      "extravag": 6997,
      "dracula": 6998,
      "synthe": 6999,
      "archaeological": 7000,
      "domination": 7001,
      "thousands": 7002,
      "fairy": 7003,
      "mechanic": 7004,
      "reconnaissance": 7005,
      "mythical": 7006,
      "belongs": 7007,
      "immigrant": 7008,
      "nobleman": 7009,
      "addicted": 7010,
      "diplom": 7011,
      "fabled": 7012,
      "ignor": 7013,
      "junior": 7014,
      "poseidon": 7015,
      "chopper": 7016,
      "crystal": 7017,
      "spartan": 7018,
      "evolution": 7019,
      "shelter": 7020,
      "feudal": 7021,
      "flashback": 7022,
      "subsequent": 7023,
      "surrounding": 7024,
      "bumbling": 7025,
      "hawk": 7026,
      "kashmir": 7027,
      "##zerland": 7028,
      "reverend": 7029,
      "refugees": 7030,
      "bitter": 7031,
      "bully": 7032,
      "cougar": 7033,
      "ticket": 7034,
      "utah": 7035,
      "vincent": 7036,
      "##iacal": 7037,
      "chapman": 7038,
      "leonard": 7039,
      "shattered": 7040,
      "suicide": 7041,
      "introduced": 7042,
      "disclose": 7043,
      "guerr": 7044,
      "regardless": 7045,
      "collapsed": 7046,
      "volunteers": 7047,
      "cameron": 7048,
      "supplies": 7049,
      "arizona": 7050,
      "cheryl": 7051,
      "literally": 7052,
      "ottoman": 7053,
      "toughest": 7054,
      "rejected": 7055,
      "manhattan": 7056,
      "twisted": 7057,
      "achie": 7058,
      "fifth": 7059,
      "kunlun": 7060,
      "loner": 7061,
      "ronin": 7062,
      "venture": 7063,
      "aspiring": 7064,
      "dramat": 7065,
      "escalates": 7066,
      "trevor": 7067,
      "motivated": 7068,
      "musketeers": 7069,
      "avalon": 7070,
      "baldwin": 7071,
      "rollerball": 7072,
      "fulfill": 7073,
      "gavanas": 7074,
      "morning": 7075,
      "picture": 7076,
      "welcome": 7077,
      "alcatraz": 7078,
      "newcomer": 7079,
      "meantime": 7080,
      "deadliest": 7081,
      "unwittingly": 7082,
      "jaideep": 7083,
      "gauri": 7084,
      "hockey": 7085,
      "jordan": 7086,
      "kakihara": 7087,
      "mesrine": 7088,
      "southern": 7089,
      "tasks": 7090,
      "wyatt": 7091,
      "##stein": 7092,
      "stabbed": 7093,
      "forgotten": 7094,
      "tragedy": 7095,
      "graffiti": 7096,
      "clumsy": 7097,
      "amusement": 7098,
      "guidance": 7099,
      "guinea": 7100,
      "switzerland": 7101,
      "apprentice": 7102,
      "patients": 7103,
      "ambassador": 7104,
      "gunslinger": 7105,
      "resourceful": 7106,
      "afghanistan": 7107,
      "librarian": 7108,
      "aubrey": 7109,
      "bavmorda": 7110,
      "cotton": 7111,
      "cullen": 7112,
      "doyle": 7113,
      "fernando": 7114,
      "fifteen": 7115,
      "ibelin": 7116,
      "jesus": 7117,
      "jennings": 7118,
      "keshav": 7119,
      "tetsuo": 7120,
      "vlad": 7121,
      "zatoichi": 7122,
      "trautman": 7123,
      "hercules": 7124,
      "shankar": 7125,
      "manufact": 7126,
      "disastrous": 7127,
      "capsule": 7128,
      "prototype": 7129,
      "transylvania": 7130,
      "memphis": 7131,
      "blacksmith": 7132,
      "nevertheless": 7133,
      "daredevil": 7134,
      "unscrupulous": 7135,
      "synthetic": 7136,
      "27": 7137,
      "400": 7138,
      "70": 7139,
      "aeg": 7140,
      "ailing": 7141,
      "bly": 7142,
      "bos": 7143,
      "bold": 7144,
      "bail": 7145,
      "bike": 7146,
      "bugg": 7147,
      "bah": 7148,
      "bugs": 7149,
      "cn": 7150,
      "ce": 7151,
      "cin": 7152,
      "cet": 7153,
      "cite": 7154,
      "cable": 7155,
      "dy": 7156,
      "dh": 7157,
      "dim": 7158,
      "dick": 7159,
      "dull": 7160,
      "dating": 7161,
      "dix": 7162,
      "dante": 7163,
      "dune": 7164,
      "dyl": 7165,
      "dancer": 7166,
      "ein": 7167,
      "eun": 7168,
      "eagle": 7169,
      "fans": 7170,
      "faster": 7171,
      "fury": 7172,
      "gave": 7173,
      "gulf": 7174,
      "gorge": 7175,
      "guru": 7176,
      "greek": 7177,
      "ha": 7178,
      "hap": 7179,
      "hip": 7180,
      "hick": 7181,
      "hatt": 7182,
      "hank": 7183,
      "hates": 7184,
      "hair": 7185,
      "hoo": 7186,
      "hoop": 7187,
      "hyp": 7188,
      "iv": 7189,
      "iq": 7190,
      "ibo": 7191,
      "jas": 7192,
      "kan": 7193,
      "kol": 7194,
      "kab": 7195,
      "kah": 7196,
      "kane": 7197,
      "lanc": 7198,
      "lights": 7199,
      "lived": 7200,
      "lavag": 7201,
      "ment": 7202,
      "mol": 7203,
      "mam": 7204,
      "mun": 7205,
      "mile": 7206,
      "mold": 7207,
      "mild": 7208,
      "muth": 7209,
      "mental": 7210,
      "nun": 7211,
      "nich": 7212,
      "nris": 7213,
      "nsa": 7214,
      "o2": 7215,
      "osm": 7216,
      "py": 7217,
      "ped": 7218,
      "pent": 7219,
      "pap": 7220,
      "pul": 7221,
      "pant": 7222,
      "pav": 7223,
      "pool": 7224,
      "picks": 7225,
      "penn": 7226,
      "poker": 7227,
      "pension": 7228,
      "qing": 7229,
      "rum": 7230,
      "rath": 7231,
      "riz": 7232,
      "rely": 7233,
      "range": 7234,
      "rudy": 7235,
      "sg": 7236,
      "sed": 7237,
      "sort": 7238,
      "sound": 7239,
      "sung": 7240,
      "sith": 7241,
      "saint": 7242,
      "sanche": 7243,
      "sivaji": 7244,
      "ti": 7245,
      "ts": 7246,
      "tic": 7247,
      "tam": 7248,
      "tap": 7249,
      "tast": 7250,
      "tens": 7251,
      "tub": 7252,
      "uk": 7253,
      "util": 7254,
      "vrinks": 7255,
      "wed": 7256,
      "wade": 7257,
      "wake": 7258,
      "wann": 7259,
      "xxx": 7260,
      "yin": 7261,
      "yuk": 7262,
      "zane": 7263,
      "##oh": 7264,
      "##oos": 7265,
      "##och": 7266,
      "##nings": 7267,
      "##gin": 7268,
      "##gic": 7269,
      "##gom": 7270,
      "##gust": 7271,
      "##gate": 7272,
      "##uary": 7273,
      "##eu": 7274,
      "##eath": 7275,
      "##aud": 7276,
      "##rd": 7277,
      "##run": 7278,
      "##rum": 7279,
      "##rows": 7280,
      "##rative": 7281,
      "##iate": 7282,
      "##iets": 7283,
      "##iable": 7284,
      "##iquel": 7285,
      "##med": 7286,
      "##mid": 7287,
      "##mart": 7288,
      "##mist": 7289,
      "##mine": 7290,
      "##mates": 7291,
      "##moth": 7292,
      "##making": 7293,
      "##ll": 7294,
      "##lam": 7295,
      "##ss": 7296,
      "##sive": 7297,
      "##yon": 7298,
      "##fon": 7299,
      "##fun": 7300,
      "##fast": 7301,
      "##fire": 7302,
      "##cles": 7303,
      "##celled": 7304,
      "##te": 7305,
      "##hd": 7306,
      "##hon": 7307,
      "##bab": 7308,
      "##bian": 7309,
      "##da": 7310,
      "##di": 7311,
      "##dam": 7312,
      "##joy": 7313,
      "##vich": 7314,
      "##zhe": 7315,
      "##zed": 7316,
      "##xter": 7317,
      "##xious": 7318,
      "##po": 7319,
      "##part": 7320,
      "##pace": 7321,
      "##pse": 7322,
      "##ko": 7323,
      "##ki": 7324,
      "##kers": 7325,
      "##wary": 7326,
      "##86": 7327,
      "##heer": 7328,
      "##hetra": 7329,
      "theater": 7330,
      "theories": 7331,
      "##erv": 7332,
      "##iners": 7333,
      "##inted": 7334,
      "##onto": 7335,
      "##ester": 7336,
      "##orop": 7337,
      "##orth": 7338,
      "##orman": 7339,
      "toorop": 7340,
      "##atives": 7341,
      "##arct": 7342,
      "##arge": 7343,
      "andy": 7344,
      "andro": 7345,
      "inher": 7346,
      "##aloman": 7347,
      "##alty": 7348,
      "##alistic": 7349,
      "##ito": 7350,
      "##itar": 7351,
      "##itage": 7352,
      "##itute": 7353,
      "##ittered": 7354,
      "##rez": 7355,
      "##real": 7356,
      "##ila": 7357,
      "##iles": 7358,
      "##ilpa": 7359,
      "##ilogy": 7360,
      "##icit": 7361,
      "##oms": 7362,
      "##asher": 7363,
      "##etcher": 7364,
      "##elot": 7365,
      "##elve": 7366,
      "##uther": 7367,
      "##enth": 7368,
      "##acc": 7369,
      "##acon": 7370,
      "##acement": 7371,
      "##stander": 7372,
      "hein": 7373,
      "heights": 7374,
      "whit": 7375,
      "##ird": 7376,
      "##amis": 7377,
      "##aming": 7378,
      "##ambo": 7379,
      "##othes": 7380,
      "anna": 7381,
      "sto": 7382,
      "stun": 7383,
      "stall": 7384,
      "stole": 7385,
      "stumble": 7386,
      "beer": 7387,
      "beats": 7388,
      "fors": 7389,
      "forge": 7390,
      "##rian": 7391,
      "##ript": 7392,
      "##riots": 7393,
      "dea": 7394,
      "rein": 7395,
      "reass": 7396,
      "reyn": 7397,
      "##aya": 7398,
      "frantic": 7399,
      "##aph": 7400,
      "##apse": 7401,
      "whoever": 7402,
      "bystander": 7403,
      "alt": 7404,
      "alain": 7405,
      "alzhe": 7406,
      "trilogy": 7407,
      "prone": 7408,
      "##ops": 7409,
      "##opp": 7410,
      "##opol": 7411,
      "sect": 7412,
      "sevent": 7413,
      "semi": 7414,
      "chases": 7415,
      "chappy": 7416,
      "##osity": 7417,
      "##agement": 7418,
      "##agami": 7419,
      "##ulu": 7420,
      "##estic": 7421,
      "##estruct": 7422,
      "atroc": 7423,
      "neill": 7424,
      "arn": 7425,
      "aren": 7426,
      "arson": 7427,
      "aragami": 7428,
      "##essa": 7429,
      "##esses": 7430,
      "##ession": 7431,
      "heritage": 7432,
      "##ema": 7433,
      "##emony": 7434,
      "##emaker": 7435,
      "conan": 7436,
      "convent": 7437,
      "concl": 7438,
      "##iform": 7439,
      "coma": 7440,
      "##ously": 7441,
      "##oda": 7442,
      "##odox": 7443,
      "plut": 7444,
      "plain": 7445,
      "plummer": 7446,
      "brand": 7447,
      "broke": 7448,
      "brink": 7449,
      "shag": 7450,
      "shall": 7451,
      "shake": 7452,
      "shred": 7453,
      "shilpa": 7454,
      "loving": 7455,
      "loaded": 7456,
      "##ieu": 7457,
      "##iece": 7458,
      "##ivorous": 7459,
      "unst": 7460,
      "unbe": 7461,
      "unrel": 7462,
      "unpre": 7463,
      "unjust": 7464,
      "unorth": 7465,
      "uniform": 7466,
      "worm": 7467,
      "##ateur": 7468,
      "##ounts": 7469,
      "engr": 7470,
      "enjoy": 7471,
      "sud": 7472,
      "sund": 7473,
      "outback": 7474,
      "outwit": 7475,
      "afoul": 7476,
      "##avell": 7477,
      "##avior": 7478,
      "spear": 7479,
      "##ume": 7480,
      "##uma": 7481,
      "upper": 7482,
      "upcoming": 7483,
      "uphold": 7484,
      "uprising": 7485,
      "warn": 7486,
      "grind": 7487,
      "grav": 7488,
      "groc": 7489,
      "grud": 7490,
      "graves": 7491,
      "gradu": 7492,
      "##iances": 7493,
      "dry": 7494,
      "drill": 7495,
      "killian": 7496,
      "##ards": 7497,
      "##ardly": 7498,
      "##cock": 7499,
      "##ownst": 7500,
      "dism": 7501,
      "disk": 7502,
      "disab": 7503,
      "disgust": 7504,
      "theme": 7505,
      "abh": 7506,
      "abrupt": 7507,
      "evade": 7508,
      "evangel": 7509,
      "shed": 7510,
      "##ipal": 7511,
      "##gee": 7512,
      "##geon": 7513,
      "poll": 7514,
      "polar": 7515,
      "blair": 7516,
      "blaze": 7517,
      "canine": 7518,
      "cancelled": 7519,
      "##ptly": 7520,
      "##kshetra": 7521,
      "##athy": 7522,
      "knuck": 7523,
      "cares": 7524,
      "carmen": 7525,
      "carla": 7526,
      "carried": 7527,
      "##izer": 7528,
      "claw": 7529,
      "clash": 7530,
      "clark": 7531,
      "clones": 7532,
      "cloning": 7533,
      "invade": 7534,
      "invites": 7535,
      "##okes": 7536,
      "scr": 7537,
      "scam": 7538,
      "science": 7539,
      "scared": 7540,
      "terribly": 7541,
      "##icky": 7542,
      "##icker": 7543,
      "planes": 7544,
      "##ikawa": 7545,
      "booth": 7546,
      "suraj": 7547,
      "marie": 7548,
      "retain": 7549,
      "retribution": 7550,
      "decade": 7551,
      "caps": 7552,
      "caper": 7553,
      "armaged": 7554,
      "armored": 7555,
      "##rupts": 7556,
      "##berg": 7557,
      "##quis": 7558,
      "imhot": 7559,
      "trial": 7560,
      "trigg": 7561,
      "cole": 7562,
      "colossa": 7563,
      "colorado": 7564,
      "emissary": 7565,
      "##actor": 7566,
      "robbed": 7567,
      "robbing": 7568,
      "somewh": 7569,
      "##ogan": 7570,
      "##iction": 7571,
      "quit": 7572,
      "quad": 7573,
      "quasi": 7574,
      "brotherhood": 7575,
      "coer": 7576,
      "commits": 7577,
      "##eye": 7578,
      "downfall": 7579,
      "amr": 7580,
      "amanda": 7581,
      "amnes": 7582,
      "amateur": 7583,
      "owns": 7584,
      "humor": 7585,
      "humble": 7586,
      "hummel": 7587,
      "indestruct": 7588,
      "novels": 7589,
      "relies": 7590,
      "beings": 7591,
      "worked": 7592,
      "menacing": 7593,
      "smoke": 7594,
      "destruct": 7595,
      "realise": 7596,
      "located": 7597,
      "elle": 7598,
      "elaborate": 7599,
      "parach": 7600,
      "parody": 7601,
      "guise": 7602,
      "guitar": 7603,
      "##azel": 7604,
      "##aterrest": 7605,
      "##ecrack": 7606,
      "terrorism": 7607,
      "devices": 7608,
      "rai": 7609,
      "reclaim": 7610,
      "##othgar": 7611,
      "feast": 7612,
      "feats": 7613,
      "sworn": 7614,
      "swift": 7615,
      "keong": 7616,
      "keats": 7617,
      "##ashi": 7618,
      "headl": 7619,
      "creasy": 7620,
      "slum": 7621,
      "drift": 7622,
      "##iddo": 7623,
      "charley": 7624,
      "charming": 7625,
      "income": 7626,
      "flame": 7627,
      "fletcher": 7628,
      "informer": 7629,
      "interview": 7630,
      "handful": 7631,
      "handedly": 7632,
      "miners": 7633,
      "minions": 7634,
      "minute": 7635,
      "attacking": 7636,
      "destroyer": 7637,
      "filmed": 7638,
      "month": 7639,
      "##alsrud": 7640,
      "##blings": 7641,
      "insul": 7642,
      "insists": 7643,
      "insurance": 7644,
      "humanitarian": 7645,
      "##ahan": 7646,
      "captors": 7647,
      "remn": 7648,
      "remem": 7649,
      "appearing": 7650,
      "greater": 7651,
      "##engu": 7652,
      "pharm": 7653,
      "engage": 7654,
      "mysteriously": 7655,
      "behavior": 7656,
      "shipment": 7657,
      "wells": 7658,
      "scientific": 7659,
      "mobsters": 7660,
      "putting": 7661,
      "attempted": 7662,
      "##ussy": 7663,
      "passing": 7664,
      "passport": 7665,
      "roof": 7666,
      "##suit": 7667,
      "plotting": 7668,
      "commanded": 7669,
      "blooded": 7670,
      "profile": 7671,
      "said": 7672,
      "apache": 7673,
      "edison": 7674,
      "editor": 7675,
      "winnet": 7676,
      "rebirth": 7677,
      "hitler": 7678,
      "hopeless": 7679,
      "tarzan": 7680,
      "wouldn": 7681,
      "joint": 7682,
      "demoted": 7683,
      "specialist": 7684,
      "russoti": 7685,
      "organisation": 7686,
      "##yssey": 7687,
      "depths": 7688,
      "raccoon": 7689,
      "suppose": 7690,
      "bribe": 7691,
      "bright": 7692,
      "instincts": 7693,
      "instrum": 7694,
      "restless": 7695,
      "topper": 7696,
      "dragged": 7697,
      "studying": 7698,
      "regret": 7699,
      "regiment": 7700,
      "explain": 7701,
      "explod": 7702,
      "grey": 7703,
      "probation": 7704,
      "probably": 7705,
      "connect": 7706,
      "majority": 7707,
      "beneath": 7708,
      "visited": 7709,
      "donald": 7710,
      "freez": 7711,
      "jeopard": 7712,
      "mute": 7713,
      "norman": 7714,
      "motion": 7715,
      "embr": 7716,
      "embittered": 7717,
      "##phin": 7718,
      "entering": 7719,
      "entertain": 7720,
      "believing": 7721,
      "successor": 7722,
      "laun": 7723,
      "tales": 7724,
      "talks": 7725,
      "talented": 7726,
      "stander": 7727,
      "immense": 7728,
      "sne": 7729,
      "shoots": 7730,
      "rajan": 7731,
      "207": 7732,
      "203": 7733,
      "moroc": 7734,
      "ashore": 7735,
      "ashwin": 7736,
      "continents": 7737,
      "liu": 7738,
      "liqu": 7739,
      "medal": 7740,
      "natives": 7741,
      "ramon": 7742,
      "advantage": 7743,
      "danish": 7744,
      "mrs": 7745,
      "antarct": 7746,
      "musical": 7747,
      "musician": 7748,
      "oppose": 7749,
      "safely": 7750,
      "safari": 7751,
      "sanity": 7752,
      "188": 7753,
      "cats": 7754,
      "defended": 7755,
      "defending": 7756,
      "sometimes": 7757,
      "marries": 7758,
      "patience": 7759,
      "defeated": 7760,
      "awa": 7761,
      "renard": 7762,
      "burgl": 7763,
      "cycl": 7764,
      "malay": 7765,
      "malhot": 7766,
      "turf": 7767,
      "severe": 7768,
      "communications": 7769,
      "foe": 7770,
      "foh": 7771,
      "homes": 7772,
      "masses": 7773,
      "fearing": 7774,
      "fearless": 7775,
      "rocket": 7776,
      "transforming": 7777,
      "austrian": 7778,
      "despotic": 7779,
      "irre": 7780,
      "irwin": 7781,
      "distress": 7782,
      "naval": 7783,
      "determination": 7784,
      "cleared": 7785,
      "ern": 7786,
      "gamera": 7787,
      "mcken": 7788,
      "collapse": 7789,
      "faction": 7790,
      "footstep": 7791,
      "jungles": 7792,
      "tao": 7793,
      "vetter": 7794,
      "bored": 7795,
      "variety": 7796,
      "##knownst": 7797,
      "chau": 7798,
      "chaotic": 7799,
      "sheridan": 7800,
      "informed": 7801,
      "camps": 7802,
      "minded": 7803,
      "twelve": 7804,
      "valent": 7805,
      "thirty": 7806,
      "changing": 7807,
      "holiday": 7808,
      "soviets": 7809,
      "villainous": 7810,
      "postman": 7811,
      "afford": 7812,
      "bullets": 7813,
      "bullied": 7814,
      "salv": 7815,
      "savior": 7816,
      "savvy": 7817,
      "contacted": 7818,
      "breed": 7819,
      "numbers": 7820,
      "##going": 7821,
      "recovering": 7822,
      "construct": 7823,
      "davy": 7824,
      "direction": 7825,
      "factory": 7826,
      "occas": 7827,
      "truckers": 7828,
      "encountering": 7829,
      "claude": 7830,
      "disappearing": 7831,
      "automatic": 7832,
      "##ihar": 7833,
      "repair": 7834,
      "abduction": 7835,
      "provides": 7836,
      "costa": 7837,
      "transporting": 7838,
      "technical": 7839,
      "diary": 7840,
      "denver": 7841,
      "latter": 7842,
      "latino": 7843,
      "situations": 7844,
      "satisf": 7845,
      "shadows": 7846,
      "crusade": 7847,
      "crusader": 7848,
      "misf": 7849,
      "1943": 7850,
      "1944": 7851,
      "baalsrud": 7852,
      "domestic": 7853,
      "midnight": 7854,
      "westernized": 7855,
      "hancock": 7856,
      "punks": 7857,
      "ranks": 7858,
      "adventurous": 7859,
      "derail": 7860,
      "derring": 7861,
      "julia": 7862,
      "pacif": 7863,
      "univers": 7864,
      "accepted": 7865,
      "barbossa": 7866,
      "dollar": 7867,
      "momma": 7868,
      "sleazy": 7869,
      "chances": 7870,
      "revealing": 7871,
      "circle": 7872,
      "zorin": 7873,
      "unsus": 7874,
      "1980": 7875,
      "activist": 7876,
      "completed": 7877,
      "participate": 7878,
      "participates": 7879,
      "101": 7880,
      "kenobi": 7881,
      "potent": 7882,
      "vikrant": 7883,
      "sucked": 7884,
      "admit": 7885,
      "biologist": 7886,
      "initial": 7887,
      "supers": 7888,
      "megaloman": 7889,
      "megiddo": 7890,
      "tribute": 7891,
      "tribulation": 7892,
      "familiar": 7893,
      "contestant": 7894,
      "unexpectedly": 7895,
      "banner": 7896,
      "posing": 7897,
      "hearing": 7898,
      "status": 7899,
      "statue": 7900,
      "conquering": 7901,
      "amazon": 7902,
      "1971": 7903,
      "incidents": 7904,
      "ballu": 7905,
      "mirac": 7906,
      "miranda": 7907,
      "##adoes": 7908,
      "require": 7909,
      "prostitutes": 7910,
      "infiltrates": 7911,
      "burned": 7912,
      "burnett": 7913,
      "birthday": 7914,
      "kalle": 7915,
      "loud": 7916,
      "selected": 7917,
      "waiting": 7918,
      "deceased": 7919,
      "crowd": 7920,
      "imagined": 7921,
      "deserts": 7922,
      "jealousy": 7923,
      "radioactive": 7924,
      "hurric": 7925,
      "nakano": 7926,
      "urban": 7927,
      "crashed": 7928,
      "cruelty": 7929,
      "declared": 7930,
      "implanted": 7931,
      "negotiate": 7932,
      "alcohol": 7933,
      "asterix": 7934,
      "doug": 7935,
      "rosewood": 7936,
      "heiress": 7937,
      "devastated": 7938,
      "funds": 7939,
      "succeeds": 7940,
      "foley": 7941,
      "taggart": 7942,
      "torture": 7943,
      "wolf": 7944,
      "unwilling": 7945,
      "extraterrest": 7946,
      "quarter": 7947,
      "prepares": 7948,
      "industries": 7949,
      "increase": 7950,
      "volcanic": 7951,
      "diablo": 7952,
      "focuses": 7953,
      "environmental": 7954,
      "nerve": 7955,
      "panic": 7956,
      "portal": 7957,
      "telefon": 7958,
      "wreaks": 7959,
      "wreaking": 7960,
      "mechanical": 7961,
      "emotions": 7962,
      "explorer": 7963,
      "occurs": 7964,
      "customers": 7965,
      "answer": 7966,
      "celebrated": 7967,
      "dunston": 7968,
      "oblig": 7969,
      "tabrez": 7970,
      "chopra": 7971,
      "##ographer": 7972,
      "cookery": 7973,
      "apparent": 7974,
      "artifacts": 7975,
      "temperament": 7976,
      "sorceress": 7977,
      "galact": 7978,
      "jump": 7979,
      "limit": 7980,
      "limits": 7981,
      "tsui": 7982,
      "wrecked": 7983,
      "nepal": 7984,
      "sharkboy": 7985,
      "sparrow": 7986,
      "resources": 7987,
      "screen": 7988,
      "independent": 7989,
      "tyrann": 7990,
      "tyranny": 7991,
      "andrews": 7992,
      "absolute": 7993,
      "econom": 7994,
      "baghd": 7995,
      "hustler": 7996,
      "kangaroo": 7997,
      "octop": 7998,
      "pushes": 7999,
      "tower": 8000,
      "chapter": 8001,
      "suicidal": 8002,
      "ellie": 8003,
      "persuade": 8004,
      "collapses": 8005,
      "cannonball": 8006,
      "admiral": 8007,
      "accompanies": 8008,
      "dinosaurs": 8009,
      "gallery": 8010,
      "naive": 8011,
      "nyman": 8012,
      "nikita": 8013,
      "oliver": 8014,
      "odyssey": 8015,
      "voice": 8016,
      "vishi": 8017,
      "vishal": 8018,
      "traffic": 8019,
      "churchill": 8020,
      "surprised": 8021,
      "harassed": 8022,
      "exploits": 8023,
      "promotion": 8024,
      "summoned": 8025,
      "sweetheart": 8026,
      "ae86": 8027,
      "nandini": 8028,
      "pigs": 8029,
      "siblings": 8030,
      "tactics": 8031,
      "traitor": 8032,
      "concerned": 8033,
      "disgraced": 8034,
      "mogambo": 8035,
      "carnivorous": 8036,
      "scotland": 8037,
      "coffee": 8038,
      "compromised": 8039,
      "buffy": 8040,
      "objects": 8041,
      "divorce": 8042,
      "directly": 8043,
      "counterfeit": 8044,
      "inexperienced": 8045,
      "botched": 8046,
      "cobretti": 8047,
      "gulab": 8048,
      "hrothgar": 8049,
      "holland": 8050,
      "izmer": 8051,
      "nui": 8052,
      "sahil": 8053,
      "mehra": 8054,
      "settlers": 8055,
      "features": 8056,
      "harvard": 8057,
      "flamboy": 8058,
      "infantry": 8059,
      "suburban": 8060,
      "saxon": 8061,
      "depicting": 8062,
      "merchant": 8063,
      "opponents": 8064,
      "populace": 8065,
      "enslaved": 8066,
      "neighbour": 8067,
      "excavation": 8068,
      "perpetrator": 8069,
      "aurora": 8070,
      "aishwary": 8071,
      "highest": 8072,
      "license": 8073,
      "oberoi": 8074,
      "alchemist": 8075,
      "conceal": 8076,
      "exhib": 8077,
      "clandestine": 8078,
      "corbin": 8079,
      "reckless": 8080,
      "bridge": 8081,
      "babysit": 8082,
      "mongolian": 8083,
      "doubts": 8084,
      "established": 8085,
      "prosecutor": 8086,
      "neutralize": 8087,
      "frustrated": 8088,
      "cosmic": 8089,
      "goblin": 8090,
      "kurukshetra": 8091,
      "rivals": 8092,
      "rubber": 8093,
      "thorne": 8094,
      "september": 8095,
      "shashank": 8096,
      "manchu": 8097,
      "administ": 8098,
      "decorated": 8099,
      "empty": 8100,
      "covenant": 8101,
      "premiere": 8102,
      "swallowed": 8103,
      "stevens": 8104,
      "interpol": 8105,
      "poachers": 8106,
      "tremors": 8107,
      "arrogant": 8108,
      "benjamin": 8109,
      "2029": 8110,
      "ensnared": 8111,
      "taxi": 8112,
      "luxury": 8113,
      "inevitable": 8114,
      "wolverine": 8115,
      "ignoring": 8116,
      "flashbacks": 8117,
      "aegis": 8118,
      "buggy": 8119,
      "ceti": 8120,
      "dylan": 8121,
      "eunuch": 8122,
      "gorgeous": 8123,
      "hooper": 8124,
      "iqbal": 8125,
      "lavagirl": 8126,
      "mentally": 8127,
      "mammoth": 8128,
      "muthu": 8129,
      "nicholas": 8130,
      "osmosis": 8131,
      "sgt": 8132,
      "sanchez": 8133,
      "tsuda": 8134,
      "ticlaw": 8135,
      "tensions": 8136,
      "android": 8137,
      "reynolds": 8138,
      "alzheimer": 8139,
      "atrocities": 8140,
      "shredder": 8141,
      "unbeknownst": 8142,
      "unorthodox": 8143,
      "grocery": 8144,
      "evangelion": 8145,
      "armageddon": 8146,
      "imhotep": 8147,
      "triggers": 8148,
      "somewhat": 8149,
      "amnesia": 8150,
      "winnetou": 8151,
      "antarctica": 8152,
      "malhotra": 8153,
      "footsteps": 8154,
      "baghdad": 8155,
      "aishwarya": 8156,
      "28": 8157,
      "2nd": 8158,
      "32": 8159,
      "3rd": 8160,
      "40": 8161,
      "48": 8162,
      "51": 8163,
      "60": 8164,
      "6th": 8165,
      "747": 8166,
      "8th": 8167,
      "800": 8168,
      "aj": 8169,
      "aim": 8170,
      "aly": 8171,
      "aver": 8172,
      "apr": 8173,
      "ahead": 8174,
      "bm": 8175,
      "bak": 8176,
      "bart": 8177,
      "bug": 8178,
      "bone": 8179,
      "bath": 8180,
      "barn": 8181,
      "beng": 8182,
      "bha": 8183,
      "bait": 8184,
      "baker": 8185,
      "benson": 8186,
      "bihar": 8187,
      "ca": 8188,
      "cad": 8189,
      "cang": 8190,
      "cbi": 8191,
      "clem": 8192,
      "cze": 8193,
      "cache": 8194,
      "creek": 8195,
      "cesar": 8196,
      "coryo": 8197,
      "css": 8198,
      "dw": 8199,
      "dent": 8200,
      "dall": 8201,
      "dave": 8202,
      "dates": 8203,
      "daz": 8204,
      "dons": 8205,
      "dale": 8206,
      "diving": 8207,
      "dines": 8208,
      "dub": 8209,
      "eug": 8210,
      "eager": 8211,
      "erupts": 8212,
      "fue": 8213,
      "fud": 8214,
      "frid": 8215,
      "fried": 8216,
      "firm": 8217,
      "gi": 8218,
      "gon": 8219,
      "gir": 8220,
      "gill": 8221,
      "gest": 8222,
      "gian": 8223,
      "gage": 8224,
      "gide": 8225,
      "garn": 8226,
      "gask": 8227,
      "gerson": 8228,
      "hid": 8229,
      "hous": 8230,
      "hug": 8231,
      "hate": 8232,
      "hob": 8233,
      "hence": 8234,
      "hors": 8235,
      "hounded": 8236,
      "hicks": 8237,
      "hooks": 8238,
      "hogg": 8239,
      "ire": 8240,
      "jou": 8241,
      "jag": 8242,
      "jang": 8243,
      "jage": 8244,
      "jens": 8245,
      "jup": 8246,
      "ko": 8247,
      "kl": 8248,
      "ky": 8249,
      "kle": 8250,
      "kay": 8251,
      "kob": 8252,
      "kiss": 8253,
      "kors": 8254,
      "kaz": 8255,
      "loun": 8256,
      "lith": 8257,
      "luthor": 8258,
      "lola": 8259,
      "lazy": 8260,
      "lumber": 8261,
      "lulu": 8262,
      "mow": 8263,
      "mch": 8264,
      "mate": 8265,
      "mall": 8266,
      "mud": 8267,
      "mout": 8268,
      "male": 8269,
      "mugg": 8270,
      "mih": 8271,
      "maced": 8272,
      "nut": 8273,
      "nest": 8274,
      "nose": 8275,
      "nages": 8276,
      "nosed": 8277,
      "nathan": 8278,
      "nasty": 8279,
      "nihil": 8280,
      "oh": 8281,
      "ocp": 8282,
      "paw": 8283,
      "pact": 8284,
      "porn": 8285,
      "punk": 8286,
      "pawn": 8287,
      "poses": 8288,
      "psion": 8289,
      "pimp": 8290,
      "qin": 8291,
      "rh": 8292,
      "rit": 8293,
      "rent": 8294,
      "rop": 8295,
      "rus": 8296,
      "rack": 8297,
      "rang": 8298,
      "rage": 8299,
      "rally": 8300,
      "rash": 8301,
      "rare": 8302,
      "rib": 8303,
      "riding": 8304,
      "rhod": 8305,
      "sang": 8306,
      "sant": 8307,
      "sust": 8308,
      "song": 8309,
      "soup": 8310,
      "sorts": 8311,
      "soph": 8312,
      "santa": 8313,
      "sorna": 8314,
      "tin": 8315,
      "tight": 8316,
      "tip": 8317,
      "table": 8318,
      "tears": 8319,
      "tests": 8320,
      "tips": 8321,
      "tension": 8322,
      "ves": 8323,
      "vann": 8324,
      "wis": 8325,
      "wah": 8326,
      "wynn": 8327,
      "xer": 8328,
      "yan": 8329,
      "yat": 8330,
      "yug": 8331,
      "yog": 8332,
      "yash": 8333,
      "yager": 8334,
      "yee": 8335,
      "zen": 8336,
      "zero": 8337,
      "##over": 8338,
      "##ooth": 8339,
      "##nis": 8340,
      "##nic": 8341,
      "##gers": 8342,
      "##gos": 8343,
      "##gency": 8344,
      "##uing": 8345,
      "##ule": 8346,
      "##uart": 8347,
      "##uard": 8348,
      "##ean": 8349,
      "##aver": 8350,
      "##ajo": 8351,
      "##rad": 8352,
      "##ros": 8353,
      "##rus": 8354,
      "##rach": 8355,
      "##rog": 8356,
      "##rille": 8357,
      "##iya": 8358,
      "##iatr": 8359,
      "##iyan": 8360,
      "##iavell": 8361,
      "##mo": 8362,
      "##mop": 8363,
      "##medy": 8364,
      "##member": 8365,
      "##mouth": 8366,
      "##lan": 8367,
      "##lic": 8368,
      "##lie": 8369,
      "##lum": 8370,
      "##lov": 8371,
      "##sula": 8372,
      "##yla": 8373,
      "##fu": 8374,
      "##fig": 8375,
      "##finger": 8376,
      "##cro": 8377,
      "##tz": 8378,
      "##teen": 8379,
      "##hm": 8380,
      "##hit": 8381,
      "##hwar": 8382,
      "##hburn": 8383,
      "##bow": 8384,
      "##bru": 8385,
      "##dess": 8386,
      "##drop": 8387,
      "##jan": 8388,
      "##jud": 8389,
      "##vice": 8390,
      "##vian": 8391,
      "##voy": 8392,
      "##zou": 8393,
      "##zie": 8394,
      "##zard": 8395,
      "##zov": 8396,
      "##xes": 8397,
      "##xing": 8398,
      "##phe": 8399,
      "##pid": 8400,
      "##pher": 8401,
      "##ponsible": 8402,
      "##person": 8403,
      "##patr": 8404,
      "##will": 8405,
      "##ware": 8406,
      "##75": 8407,
      "##hesh": 8408,
      "##hetic": 8409,
      "theory": 8410,
      "##inated": 8411,
      "##inates": 8412,
      "##inery": 8413,
      "##inetic": 8414,
      "##nda": 8415,
      "##nders": 8416,
      "##onian": 8417,
      "##esir": 8418,
      "##anch": 8419,
      "##anix": 8420,
      "##anoid": 8421,
      "toll": 8422,
      "##isa": 8423,
      "##isp": 8424,
      "##atches": 8425,
      "##enity": 8426,
      "##encer": 8427,
      "andert": 8428,
      "##ington": 8429,
      "##ingham": 8430,
      "##itary": 8431,
      "##itance": 8432,
      "##itated": 8433,
      "##itement": 8434,
      "##reg": 8435,
      "##rew": 8436,
      "##rect": 8437,
      "##render": 8438,
      "##ilong": 8439,
      "##ilder": 8440,
      "##ilton": 8441,
      "##omi": 8442,
      "##omer": 8443,
      "##ouri": 8444,
      "##asm": 8445,
      "##aser": 8446,
      "##asim": 8447,
      "##asive": 8448,
      "##asons": 8449,
      "##ashes": 8450,
      "isab": 8451,
      "##eto": 8452,
      "##eta": 8453,
      "##etime": 8454,
      "##etora": 8455,
      "##elak": 8456,
      "##eloo": 8457,
      "##acus": 8458,
      "##sting": 8459,
      "##stick": 8460,
      "##olo": 8461,
      "##oli": 8462,
      "##ols": 8463,
      "##olar": 8464,
      "##oled": 8465,
      "oncoming": 8466,
      "##urp": 8467,
      "##urah": 8468,
      "hey": 8469,
      "heels": 8470,
      "##imir": 8471,
      "##imated": 8472,
      "whirl": 8473,
      "##iring": 8474,
      "##oto": 8475,
      "anal": 8476,
      "anth": 8477,
      "anxious": 8478,
      "stow": 8479,
      "stick": 8480,
      "stuff": 8481,
      "stuart": 8482,
      "bears": 8483,
      "forward": 8484,
      "forkl": 8485,
      "##adian": 8486,
      "##adsh": 8487,
      "##adicate": 8488,
      "##riot": 8489,
      "##rive": 8490,
      "##rialist": 8491,
      "##ribed": 8492,
      "##tery": 8493,
      "##terior": 8494,
      "##vember": 8495,
      "##idani": 8496,
      "##igs": 8497,
      "##igan": 8498,
      "##illas": 8499,
      "aside": 8500,
      "deed": 8501,
      "deem": 8502,
      "deaf": 8503,
      "deuces": 8504,
      "depressed": 8505,
      "reich": 8506,
      "reaper": 8507,
      "recogn": 8508,
      "reasons": 8509,
      "##ayer": 8510,
      "##ayan": 8511,
      "fry": 8512,
      "frames": 8513,
      "##aptra": 8514,
      "##akers": 8515,
      "##akure": 8516,
      "##akash": 8517,
      "##akov": 8518,
      "alley": 8519,
      "alleg": 8520,
      "alfred": 8521,
      "##unity": 8522,
      "##uncul": 8523,
      "##unaptra": 8524,
      "tru": 8525,
      "trop": 8526,
      "troll": 8527,
      "tracy": 8528,
      "truce": 8529,
      "traces": 8530,
      "prow": 8531,
      "prakash": 8532,
      "seok": 8533,
      "seattle": 8534,
      "chag": 8535,
      "chanc": 8536,
      "##osing": 8537,
      "##osure": 8538,
      "##andy": 8539,
      "##andan": 8540,
      "##andal": 8541,
      "##ainted": 8542,
      "##usc": 8543,
      "##usions": 8544,
      "##chin": 8545,
      "##chaun": 8546,
      "##chanted": 8547,
      "lex": 8548,
      "lew": 8549,
      "leak": 8550,
      "leone": 8551,
      "leia": 8552,
      "leiter": 8553,
      "lepre": 8554,
      "leeloo": 8555,
      "atm": 8556,
      "neil": 8557,
      "neelak": 8558,
      "arous": 8559,
      "arche": 8560,
      "arsen": 8561,
      "aramis": 8562,
      "##essors": 8563,
      "herod": 8564,
      "conj": 8565,
      "conven": 8566,
      "conced": 8567,
      "congr": 8568,
      "comet": 8569,
      "plag": 8570,
      "plates": 8571,
      "pleth": 8572,
      "brun": 8573,
      "brood": 8574,
      "brains": 8575,
      "shi": 8576,
      "shy": 8577,
      "shif": 8578,
      "shame": 8579,
      "shane": 8580,
      "shady": 8581,
      "shov": 8582,
      "shift": 8583,
      "##isty": 8584,
      "##istent": 8585,
      "##antine": 8586,
      "unve": 8587,
      "unoff": 8588,
      "worry": 8589,
      "worms": 8590,
      "##ustom": 8591,
      "##alla": 8592,
      "enam": 8593,
      "entry": 8594,
      "ensu": 8595,
      "enchanted": 8596,
      "suen": 8597,
      "suave": 8598,
      "##ober": 8599,
      "outbreak": 8600,
      "outrage": 8601,
      "mans": 8602,
      "manick": 8603,
      "manson": 8604,
      "crit": 8605,
      "craz": 8606,
      "crock": 8607,
      "##aville": 8608,
      "exer": 8609,
      "exists": 8610,
      "extract": 8611,
      "intens": 8612,
      "intends": 8613,
      "integr": 8614,
      "spons": 8615,
      "splin": 8616,
      "spawn": 8617,
      "spencer": 8618,
      "##umer": 8619,
      "##umin": 8620,
      "##thos": 8621,
      "##thood": 8622,
      "ups": 8623,
      "warm": 8624,
      "waring": 8625,
      "warren": 8626,
      "soft": 8627,
      "afterward": 8628,
      "gray": 8629,
      "grail": 8630,
      "gruff": 8631,
      "groom": 8632,
      "grazing": 8633,
      "grogan": 8634,
      "##ellor": 8635,
      "drown": 8636,
      "drool": 8637,
      "drake": 8638,
      "dispar": 8639,
      "dishon": 8640,
      "disfig": 8641,
      "teeth": 8642,
      "abusive": 8643,
      "eva": 8644,
      "evident": 8645,
      "orin": 8646,
      "orlov": 8647,
      "meyers": 8648,
      "##ocq": 8649,
      "##ocate": 8650,
      "##ocross": 8651,
      "##urel": 8652,
      "##ipher": 8653,
      "##ipse": 8654,
      "##asses": 8655,
      "resem": 8656,
      "moore": 8657,
      "##ansh": 8658,
      "##iah": 8659,
      "blast": 8660,
      "bloss": 8661,
      "cane": 8662,
      "canadian": 8663,
      "worlds": 8664,
      "##athic": 8665,
      "##ortion": 8666,
      "caravan": 8667,
      "carrier": 8668,
      "assaul": 8669,
      "notes": 8670,
      "##ples": 8671,
      "##plant": 8672,
      "youngest": 8673,
      "youngster": 8674,
      "client": 8675,
      "closed": 8676,
      "adul": 8677,
      "invades": 8678,
      "attrib": 8679,
      "scrap": 8680,
      "scuff": 8681,
      "scores": 8682,
      "washburn": 8683,
      "##achia": 8684,
      "##ickers": 8685,
      "backed": 8686,
      "##ishi": 8687,
      "murky": 8688,
      "##ucia": 8689,
      "##ikaze": 8690,
      "books": 8691,
      "surrender": 8692,
      "marks": 8693,
      "marked": 8694,
      "maroon": 8695,
      "decay": 8696,
      "decrees": 8697,
      "##ordinates": 8698,
      "gangland": 8699,
      "undergo": 8700,
      "##pped": 8701,
      "##pping": 8702,
      "##ppets": 8703,
      "otherwise": 8704,
      "overd": 8705,
      "peking": 8706,
      "##ailable": 8707,
      "misses": 8708,
      "missiles": 8709,
      "missouri": 8710,
      "##quer": 8711,
      "imf": 8712,
      "immin": 8713,
      "teamed": 8714,
      "trials": 8715,
      "trips": 8716,
      "colors": 8717,
      "colton": 8718,
      "emm": 8719,
      "empires": 8720,
      "maz": 8721,
      "maurer": 8722,
      "robby": 8723,
      "##inson": 8724,
      "##enses": 8725,
      "##ogen": 8726,
      "##oguchi": 8727,
      "makers": 8728,
      "howie": 8729,
      "howard": 8730,
      "stray": 8731,
      "strah": 8732,
      "stricken": 8733,
      "stranix": 8734,
      "partis": 8735,
      "##weight": 8736,
      "oldman": 8737,
      "##osevel": 8738,
      "usurp": 8739,
      "qui": 8740,
      "quits": 8741,
      "quitting": 8742,
      "murderers": 8743,
      "coh": 8744,
      "coco": 8745,
      "cooney": 8746,
      "famed": 8747,
      "thrilled": 8748,
      "daylight": 8749,
      "serve": 8750,
      "serum": 8751,
      "serenity": 8752,
      "ended": 8753,
      "endless": 8754,
      "amy": 8755,
      "prehist": 8756,
      "prequel": 8757,
      "prejud": 8758,
      "detention": 8759,
      "indo": 8760,
      "noon": 8761,
      "noel": 8762,
      "novice": 8763,
      "november": 8764,
      "relent": 8765,
      "related": 8766,
      "reliant": 8767,
      "calling": 8768,
      "smok": 8769,
      "smooth": 8770,
      "missionary": 8771,
      "elud": 8772,
      "elaine": 8773,
      "parad": 8774,
      "paranoid": 8775,
      "paroled": 8776,
      "guess": 8777,
      "guile": 8778,
      "##azza": 8779,
      "genre": 8780,
      "gennes": 8781,
      "superhuman": 8782,
      "##cedented": 8783,
      "corners": 8784,
      "terrorizing": 8785,
      "devour": 8786,
      "devised": 8787,
      "devlin": 8788,
      "devoted": 8789,
      "rao": 8790,
      "recreat": 8791,
      "jackal": 8792,
      "##astery": 8793,
      "battleground": 8794,
      "feisty": 8795,
      "accusing": 8796,
      "swash": 8797,
      "swann": 8798,
      "starfighter": 8799,
      "keen": 8800,
      "kebab": 8801,
      "everyday": 8802,
      "##aii": 8803,
      "defuse": 8804,
      "ski": 8805,
      "skies": 8806,
      "harb": 8807,
      "steele": 8808,
      "slain": 8809,
      "slasher": 8810,
      "anyway": 8811,
      "fallon": 8812,
      "formerly": 8813,
      "anger": 8814,
      "angar": 8815,
      "fled": 8816,
      "flick": 8817,
      "flood": 8818,
      "infect": 8819,
      "infection": 8820,
      "interests": 8821,
      "schmid": 8822,
      "scholar": 8823,
      "heroics": 8824,
      "miniat": 8825,
      "##ucky": 8826,
      "justin": 8827,
      "##rovich": 8828,
      "persians": 8829,
      "monastery": 8830,
      "mayhem": 8831,
      "##blical": 8832,
      "protector": 8833,
      "homeworld": 8834,
      "transit": 8835,
      "transplant": 8836,
      "##arkov": 8837,
      "removed": 8838,
      "appeal": 8839,
      "buying": 8840,
      "schools": 8841,
      "centered": 8842,
      "active": 8843,
      "actual": 8844,
      "sinks": 8845,
      "sinking": 8846,
      "escapees": 8847,
      "gunman": 8848,
      "gunner": 8849,
      "threats": 8850,
      "subst": 8851,
      "captains": 8852,
      "idyl": 8853,
      "peril": 8854,
      "alongside": 8855,
      "##aneously": 8856,
      "confident": 8857,
      "phill": 8858,
      "engaging": 8859,
      "jobe": 8860,
      "consul": 8861,
      "consists": 8862,
      "conspire": 8863,
      "consignment": 8864,
      "barely": 8865,
      "barren": 8866,
      "seema": 8867,
      "seemed": 8868,
      "violently": 8869,
      "wellington": 8870,
      "lawless": 8871,
      "searched": 8872,
      "artagn": 8873,
      "finest": 8874,
      "finland": 8875,
      "goods": 8876,
      "militant": 8877,
      "passion": 8878,
      "rohit": 8879,
      "roosevel": 8880,
      "experien": 8881,
      "bosses": 8882,
      "creator": 8883,
      "convoy": 8884,
      "generals": 8885,
      "bands": 8886,
      "petr": 8887,
      "petrovich": 8888,
      "appl": 8889,
      "chest": 8890,
      "cheap": 8891,
      "edgar": 8892,
      "wrapped": 8893,
      "bankrupt": 8894,
      "winley": 8895,
      "##ondo": 8896,
      "##onda": 8897,
      "##egation": 8898,
      "hoped": 8899,
      "tara": 8900,
      "opera": 8901,
      "operating": 8902,
      "democratic": 8903,
      "arrange": 8904,
      "##berspace": 8905,
      "specially": 8906,
      "presidential": 8907,
      "farming": 8908,
      "magaz": 8909,
      "##ologists": 8910,
      "depart": 8911,
      "depend": 8912,
      "collection": 8913,
      "goddess": 8914,
      "macha": 8915,
      "machinations": 8916,
      "machiavell": 8917,
      "racer": 8918,
      "racial": 8919,
      "racism": 8920,
      "virgin": 8921,
      "metro": 8922,
      "millenn": 8923,
      "instruction": 8924,
      "piloted": 8925,
      "restrict": 8926,
      "richie": 8927,
      "spacecraft": 8928,
      "bombs": 8929,
      "bombers": 8930,
      "##lemen": 8931,
      "study": 8932,
      "studies": 8933,
      "reggie": 8934,
      "firefighter": 8935,
      "firearms": 8936,
      "##luded": 8937,
      "explains": 8938,
      "grew": 8939,
      "accidents": 8940,
      "drej": 8941,
      "conned": 8942,
      "benn": 8943,
      "benyon": 8944,
      "mercy": 8945,
      "visions": 8946,
      "donor": 8947,
      "jefty": 8948,
      "mutate": 8949,
      "norway": 8950,
      "norris": 8951,
      "matches": 8952,
      "motive": 8953,
      "motocross": 8954,
      "solid": 8955,
      "encrypt": 8956,
      "included": 8957,
      "laura": 8958,
      "entity": 8959,
      "goldmember": 8960,
      "goldfinger": 8961,
      "romantically": 8962,
      "##isticated": 8963,
      "finale": 8964,
      "standoff": 8965,
      "immoral": 8966,
      "immunity": 8967,
      "glow": 8968,
      "snip": 8969,
      "opened": 8970,
      "opium": 8971,
      "##board": 8972,
      "208": 8973,
      "205": 8974,
      "elev": 8975,
      "eleph": 8976,
      "mori": 8977,
      "##unta": 8978,
      "delegation": 8979,
      "maxwell": 8980,
      "continuation": 8981,
      "liang": 8982,
      "naturally": 8983,
      "ramona": 8984,
      "advice": 8985,
      "advance": 8986,
      "advised": 8987,
      "advancing": 8988,
      "christopher": 8989,
      "pursuers": 8990,
      "failure": 8991,
      "##ovic": 8992,
      "##ovak": 8993,
      "##beau": 8994,
      "##boro": 8995,
      "servant": 8996,
      "horribly": 8997,
      "##kyard": 8998,
      "effic": 8999,
      "promised": 9000,
      "promoted": 9001,
      "prominent": 9002,
      "promptly": 9003,
      "shares": 9004,
      "shared": 9005,
      "sharad": 9006,
      "185": 9007,
      "182": 9008,
      "square": 9009,
      "##people": 9010,
      "exposed": 9011,
      "exposure": 9012,
      "defends": 9013,
      "sometime": 9014,
      "psycho": 9015,
      "psychological": 9016,
      "psychiatr": 9017,
      "ears": 9018,
      "##etto": 9019,
      "combine": 9020,
      "await": 9021,
      "piran": 9022,
      "rene": 9023,
      "strives": 9024,
      "revived": 9025,
      "burt": 9026,
      "cyrus": 9027,
      "cyberspace": 9028,
      "femme": 9029,
      "malarek": 9030,
      "malfun": 9031,
      "malmedy": 9032,
      "turbo": 9033,
      "severely": 9034,
      "seconds": 9035,
      "unfolds": 9036,
      "communicate": 9037,
      "communication": 9038,
      "avila": 9039,
      "available": 9040,
      "calm": 9041,
      "calam": 9042,
      "foiled": 9043,
      "impressive": 9044,
      "extent": 9045,
      "homeland": 9046,
      "homuncul": 9047,
      "impul": 9048,
      "impending": 9049,
      "differences": 9050,
      "figuring": 9051,
      "rocker": 9052,
      "walks": 9053,
      "transformation": 9054,
      "gained": 9055,
      "alexi": 9056,
      "duties": 9057,
      "irr": 9058,
      "pup": 9059,
      "puzz": 9060,
      "handsome": 9061,
      "distance": 9062,
      "georg": 9063,
      "employs": 9064,
      "employed": 9065,
      "employers": 9066,
      "employment": 9067,
      "erast": 9068,
      "eragon": 9069,
      "error": 9070,
      "ersk": 9071,
      "eradicate": 9072,
      "gaming": 9073,
      "gamble": 9074,
      "mcfly": 9075,
      "##inja": 9076,
      "historic": 9077,
      "principal": 9078,
      "collar": 9079,
      "collins": 9080,
      "budget": 9081,
      "eyed": 9082,
      "footage": 9083,
      "footiya": 9084,
      "##isingh": 9085,
      "smuggle": 9086,
      "smuggled": 9087,
      "smuggler": 9088,
      "borg": 9089,
      "battery": 9090,
      "chauff": 9091,
      "chaucer": 9092,
      "##ushu": 9093,
      "cases": 9094,
      "casey": 9095,
      "casual": 9096,
      "twins": 9097,
      "remainder": 9098,
      "holcro": 9099,
      "troopers": 9100,
      "flew": 9101,
      "silence": 9102,
      "refusing": 9103,
      "babylon": 9104,
      "receiving": 9105,
      "developing": 9106,
      "developers": 9107,
      "ideals": 9108,
      "bullies": 9109,
      "savina": 9110,
      "covering": 9111,
      "brenda": 9112,
      "numerous": 9113,
      "thoughts": 9114,
      "recovers": 9115,
      "constable": 9116,
      "constructed": 9117,
      "##annes": 9118,
      "##eddy": 9119,
      "stays": 9120,
      "2009": 9121,
      "mainland": 9122,
      "grandson": 9123,
      "castor": 9124,
      "payne": 9125,
      "rapists": 9126,
      "##force": 9127,
      "hijacking": 9128,
      "normandy": 9129,
      "pauline": 9130,
      "summ": 9131,
      "boarding": 9132,
      "previously": 9133,
      "denis": 9134,
      "denmark": 9135,
      "dennis": 9136,
      "latvian": 9137,
      "lower": 9138,
      "lots": 9139,
      "lotus": 9140,
      "inhabited": 9141,
      "address": 9142,
      "1996": 9143,
      "1997": 9144,
      "demanding": 9145,
      "aston": 9146,
      "narrow": 9147,
      "speaks": 9148,
      "leadership": 9149,
      "experimenting": 9150,
      "bodyguards": 9151,
      "judg": 9152,
      "judah": 9153,
      "mortes": 9154,
      "mortadel": 9155,
      "execute": 9156,
      "executed": 9157,
      "teachers": 9158,
      "designs": 9159,
      "1942": 9160,
      "presented": 9161,
      "supported": 9162,
      "programmed": 9163,
      "european": 9164,
      "baja": 9165,
      "baxter": 9166,
      "baadsh": 9167,
[...]
