[PAD]
[UNK]
[CLS]
[SEP]
[MASK]
!
"
#
$
%
&
'
(
)
+
,
-
.
/
0
1
2
3
4
5
6
7
8
9
:
;
?
[
\
]
^
_
a
b
c
d
e
f
g
h
i
j
k
l
m
n
o
p
q
r
s
t
u
v
w
x
y
z
##o
##n
##g
##u
##e
##a
##r
##i
##m
##l
##s
##y
##f
##c
##t
##h
##b
##d
##j
##v
##z
##x
##p
##k
##0
##w
##8
##5
##6
##9
##7
##3
##1
##q
##2
##4
##he
the
##er
##in
##nd
##on
##es
##an
##or
to
##is
##at
##ar
##en
##ed
and
##ing
of
in
##al
##it
##re
##il
##ic
##om
##ou
##ion
##as
is
##et
##el
##ct
th
his
##ut
##ent
##ac
##st
##ol
on
##ur
he
##im
wh
##ir
##ow
##am
##ot
##le
an
st
be
for
##ad
##ri
wit
##ly
##ter
##ve
with
##ction
##id
##ver
##ig
##ill
as
de
action
re
##ay
##her
fr
##ap
who
##ers
##ak
by
that
al
##un
##ce
tr
pr
##op
se
ch
whe
##os
##ag
##and
##ts
##ain
##ul
##est
##us
they
from
him
##ack
##ch
le
at
##igh
ne
ar
##ld
##ess
are
##ind
her
##art
##em
con
but
##ation
##if
com
when
##ang
##ous
their
##od
pl
br
has
ag
sh
lo
##ist
##ant
##end
##ie
##iv
un
wor
##ug
##ust
##ate
##all
##oun
en
su
##ob
out
man
cr
af
##av
it
go
ex
##ave
int
##ect
find
##ive
sp
##ab
##um
##ong
##th
up
##ity
##ome
##ear
war
##per
##ight
one
so
after
gr
##ell
##one
##ies
##ice
##ian
dr
##ore
kill
##ace
##ard
##co
##own
##se
##ife
into
dis
them
##ich
te
ab
ev
tak
##ime
get
##oy
all
she
new
##mer
or
##ast
##other
me
##oc
##ure
bec
##ue
##ile
##ip
##ge
this
##wo
##ass
##der
pol
will
##riend
off
res
##ial
##tr
do
##urn
mo
##ans
##ia
##wn
##our
bl
can
jo
two
world
##pt
hel
##ks
##ath
kn
##age
##ort
##ide
##ment
car
##iz
ass
have
##ious
##man
not
youn
##pl
##cover
young
##ud
must
cl
##ory
ad
##reat
again
##ire
##cc
inv
##out
##gh
##ok
##oss
att
year
##iss
##old
sc
life
##ally
only
was
##ine
##ach
##ary
ter
##ick
##sel
back
##ish
##ves
##ough
lead
##nder
friend
help
plan
mur
##uc
##aw
##att
##ound
which
##ik
bo
##ther
##app
pro
sur
time
##ame
where
sec
while
mar
police
ret
dec
##ord
##ree
pow
cap
##oup
arm
gang
bet
##ry
under
##pp
##ance
other
over
pe
##ru
against
##ail
miss
##ep
##ber
##qu
im
team
##ret
tri
col
em
##act
ma
##ather
##ugh
we
rob
way
##ins
##ens
##ster
cop
es
now
##inal
some
##og
##ild
##ets
mak
how
str
##ence
##ful
##ict
part
##ely
##irl
##ff
city
##we
##ison
old
##tain
##ble
##ose
##ives
des
us
qu
murder
fight
batt
son
agent
brother
co
comm
group
about
##ants
fam
##ident
amer
thr
americ
been
##ign
himsel
himself
day
##les
ser
##ey
there
ever
##ank
##ated
offic
terr
secret
dead
end
##ates
down
##oman
story
esc
father
##ily
am
pre
det
finds
own
death
hun
hum
girl
ind
##ors
##ical
comp
discover
years
no
##ever
##ces
##amp
kid
rel
##augh
being
call
##ite
##oll
bef
power
##ood
turn
vi
##orm
work
men
sm
dest
##ase
##get
##uring
##ows
##vent
##ings
try
stop
take
##ween
##ade
between
##ost
##ven
real
loc
becom
##ists
what
evil
set
mission
el
##amed
beg
surv
escap
##ese
##arth
before
par
takes
##land
joh
gu
##az
gen
then
super
19
##ient
##ced
##irst
##ting
cor
during
run
##ater
##ould
see
##ec
terror
dev
##ock
however
ra
rec
crim
soon
jack
##so
##aster
##arn
love
drug
becomes
john
also
##anger
##ons
##ise
##oth
##aus
more
three
##ides
assass
earth
battle
coun
high
woman
##sh
family
prot
prison
first
##pect
fe
##ft
acc
sent
##00
return
mart
sw
star
chin
ke
my
every
king
##ai
play
through
wife
def
##able
killed
mov
criminal
ac
sk
army
har
##gan
##ash
head
named
##pr
town
another
##ull
gets
cre
##ner
##ited
ste
##ike
fut
sl
officer
##ters
train
##ople
cont
dri
##ool
##ty
##way
any
##idd
boy
fall
##ased
##els
former
become
char
goes
assassin
its
contr
order
resc
most
fil
inc
attem
people
ang
##vern
fl
sold
##ues
##hes
inf
inter
##ale
##estig
crime
govern
hand
sch
##roy
##orn
hero
min
##oney
##uck
##less
learn
american
just
##ro
investig
attack
destroy
pers
##ating
trav
does
film
wants
known
mon
##ody
land
called
##ugg
##ier
##als
##ents
pres
movie
may
save
##ted
##bl
protect
money
##ron
ins
##reak
##ung
bel
danger
if
myster
home
trans
brit
even
make
human
master
##ah
##air
##venge
both
decides
kidn
pri
vill
toget
##ilit
capt
##aughter
government
together
##ark
##ult
tries
##oot
##ved
##its
advent
future
bus
##gr
##ery
rem
planet
martial
app
bu
##omb
local
school
each
lives
##aut
##rupt
surviv
cent
mem
deal
child
long
##ures
##lear
ali
detect
daughter
last
##hed
than
friends
act
great
sin
##eng
##uth
escape
gun
jap
##ork
threat
sub
leader
captain
##ause
japan
##iet
trying
id
per
race
##ny
##ning
##friend
black
small
best
los
sy
##ake
along
bond
rescue
pur
sam
##ra
##iver
##ible
##hing
##ane
##ister
forces
conf
##apped
keep
ph
##ric
##ately
eng
mysterious
job
cons
enem
##try
begins
crew
bar
##ness
##ions
island
beh
force
ship
look
##ship
sus
##ied
##ere
seem
leg
viol
british
four
well
##ling
##ator
arri
mean
##ecial
person
foll
law
##ames
##ley
sear
art
scient
happ
mob
put
once
stre
##ourn
attempt
air
fin
later
##ix
##iness
##ired
##uss
##ouse
good
country
detective
milit
po
pass
ro
##ke
comes
exper
boss
york
##su
##han
##king
##aving
meets
behind
big
creat
figh
##min
##ving
##atch
revenge
conv
know
gener
sing
sou
ul
want
##ert
plot
band
ger
night
pet
##bi
##port
##itt
##ole
place
warri
command
start
blood
prof
sa
tell
##anc
assign
girlfriend
discovers
corrupt
ap
che
ed
like
##inc
true
##ange
##thing
killer
because
deadly
fu
wr
were
##iving
bank
tre
win
##ond
##iers
reb
weap
powerful
search
game
hit
##eg
##red
##iam
beaut
whose
##ief
polit
business
break
hop
tar
would
##ask
join
makes
control
oper
##ition
indian
travel
host
none
ob
##fer
##ject
dem
arr
compl
themsel
peace
soldiers
themselves
ii
led
pil
##uch
##ually
##ton
##bers
##jay
near
come
special
invol
president
far
mag
russ
##ward
##olog
##ury
forced
arts
##ations
organ
kong
##ys
##are
dep
chr
colle
dangerous
military
god
hong
lord
mach
rac
vir
##tim
##wh
##ines
supp
leads
bri
hard
met
mill
vamp
inst
form
##aves
pilot
based
journ
rest
rich
top
##ires
space
drag
bomb
past
##lem
stud
reg
bring
brothers
fire
##ub
##ren
##lud
##ench
##ured
send
expl
enemy
ultim
gre
james
same
very
##uct
##til
##por
##ages
around
undercover
maj
accident
chinese
##while
dre
face
mother
##son
##ouble
##elf
prob
conn
many
##ization
working
angel
major
ben
body
fbi
mer
vis
vict
##led
##ker
##aged
show
succ
cops
fighting
returns
meanwhile
cour
don
free
had
je
mut
nor
##ib
too
##ically
##ady
left
need
going
legend
mat
mot
##yn
##ones
##ities
killing
emb
america
days
terrorist
terrorists
could
sol
side
##ross
##ph
anim
##iful
lost
until
enc
enter
upon
china
includ
belie
looking
beautiful
success
away
la
nuc
##iel
##ened
ent
robot
robber
compan
realiz
criminals
nuclear
bad
case
gold
red
rom
tal
##ection
##cy
things
##cept
plans
##istic
rele
fac
found
final
living
##oo
##pts
##alth
stand
imm
using
viet
recru
sword
falls
adventure
profess
gl
lar
sn
##sy
##form
##cle
##omet
##ently
shoot
##ought
learns
japanese
tells
op
sim
##oid
##nam
##bo
##ears
colon
strugg
raj
kidnapped
general
german
20
ele
mor
##ying
ash
##unt
##ular
care
dif
house
##xt
##ked
##ith
united
powers
##aught
street
vietnam
del
dark
sister
##ual
##ael
##pir
##ional
still
ref
##ival
##tra
max
across
contin
alien
ident
south
russian
bab
hold
il
li
live
med
nat
ram
##ders
inn
##ution
##acy
anc
frank
event
adv
christ
dan
mr
name
##io
these
##enge
##lex
ant
witness
##ational
brut
soc
meet
turns
survive
century
pursu
violent
follow
encoun
fail
mus
opp
wild
##ov
##gu
##iant
##be
##bor
##ician
##ills
french
next
cross
decide
serv
prevent
doesn
saf
problem
hor
mich
pop
ru
##ger
##ral
##par
##ky
##ense
##ility
##ete
##ivil
works
partner
quest
ancient
michael
civil
du
eff
psy
san
##xic
##wor
##ised
##ades
##rie
prom
leave
shar
knows
##ploy
desert
murdered
series
begin
everything
##idden
18
cat
cia
fly
litt
made
much
rog
squ
use
##dd
##pe
##ina
##sters
##osed
exp
defend
village
build
little
somet
tem
##by
##ics
##rig
never
marri
steal
driver
scientist
dream
psych
ear
hired
having
pat
rul
ty
##na
##cer
##ett
##acher
track
comb
afric
defe
children
warrior
company
##world
aw
caught
pir
ren
rival
sets
##boy
tom
those
##olen
heart
whom
stri
stolen
without
rev
##ellow
##cond
##ized
hunt
comput
investigate
##iety
personal
bur
cy
cur
fem
hot
mal
tur
west
##ler
##ony
##ural
sever
second
##ager
unf
teen
plane
commun
plays
virus
journey
av
cal
fo
mcc
poss
##ince
tough
chance
##ortun
impr
relation
starts
priv
assigned
moun
##ned
##aul
##me
thin
states
##tern
chall
ext
##umb
able
getting
quick
deter
india
##iddle
arrives
dragon
sends
angeles
relationship
hom
kore
kung
mass
ry
test
##ior
##ingly
##ason
##ute
ens
class
imp
wealth
escapes
##pected
few
finally
including
differ
innoc
fig
fear
hal
jones
kar
right
rock
wal
you
##cl
##hood
##edi
##stem
deep
##ape
champ
spy
hunter
transform
system
conspir
weapon
aust
coup
caus
five
gain
hu
middle
rag
##oop
##gn
##ij
##illa
ago
armed
desp
turned
assassination
peter
organization
ultimate
defeat
computer
alex
dut
fellow
ir
lie
pu
##lin
##ha
##de
##ism
##ctor
heav
##ott
##ider
##ested
tech
mexic
hands
confron
target
operation
million
vampire
north
something
ajay
dist
ge
kir
nav
##ners
##my
##ises
##ars
##iter
trouble
prop
chief
taking
polic
project
missing
emper
employ
ends
among
humans
captured
survivors
since
wrong
visit
identity
eventually
society
determin
champion
bill
clear
er
gam
key
mc
sell
##uce
##ek
##men
##inj
##ision
hist
##rif
princ
##ights
uncle
disapp
gangster
coll
maf
someone
paris
guard
seems
hope
involved
entire
brutal
female
bal
bud
ey
fa
fre
full
foot
jung
khan
let
ta
vet
##ead
##ience
##ising
##edy
##rees
##urai
##ama
ann
reve
##unk
joe
joins
smugg
soldier
samurai
passeng
merc
##ield
service
revol
private
wealthy
bor
bat
base
gives
jail
mod
var
##ook
##aur
##ma
##ya
##yle
##pic
##ple
##kn
##atic
##aly
##ided
cha
##ush
lee
sheri
doing
##ize
underworld
teams
training
inform
fighter
legendary
successful
half
emperor
cas
camp
mind
tw
val
##row
##ray
##ien
##ball
##ering
##asy
##elop
thir
white
within
alive
chang
##eman
unit
uncover
taken
william
##oke
uses
agents
amb
kids
attempts
remain
follows
scientists
weapons
machine
mountain
different
conspiracy
couple
mafia
die
est
hon
hol
ruth
six
##ait
##la
##ches
##za
##ino
toward
##ote
storm
troop
leaves
##ode
brings
une
sov
close
retrie
intern
villain
warriors
political
animation
ruthless
dar
fle
hidden
mad
post
sil
##awn
##ring
##vious
##ze
##int
##orts
##ention
nothing
partic
desper
fights
struggle
refus
baby
unfortun
catch
naz
##ged
##to
##band
##ara
##ening
##ala
thief
rece
##akes
##uge
enl
crash
aff
dog
mark
party
officers
owner
park
runs
seeks
seeking
develop
johnny
inside
members
ide
convict
politician
colonel
several
determined
princess
jungle
000
bull
hus
lab
nob
ninj
ray
sal
sav
veg
##gy
##hip
##iny
##enly
##illy
##entor
state
##ific
shot
##ante
##antic
##ected
wars
##iance
##wood
resear
carry
box
cover
commit
contact
##blic
capture
##ground
##uthor
perf
realizes
released
recruited
squad
combat
quickly
sheriff
bre
div
doc
giant
lu
late
num
ring
sun
task
vol
venge
##go
##side
##ched
##hab
##pire
##0s
##here
##ests
##eder
##ices
##ele
though
##urity
##ament
##leg
recover
repor
arch
const
unkn
sudd
cann
strange
device
jackie
everyone
charact
dealer
suspect
commander
businessman
history
retrieve
unfortunately
dav
dire
fact
jim
nick
occ
tale
vide
wom
water
yet
##ga
##uel
##law
##ps
##ann
##enant
##edd
##itu
##iment
stay
truck
sex
sees
##ague
##artment
##ugs
resident
assist
progr
security
betray
skills
charl
inspect
violence
student
robbery
encounter
rogue
building
lieut
confront
policeman
soviet
200
boun
eur
fate
less
mic
main
mask
orig
##ee
##lish
##ck
##dom
##vel
##esis
##ories
##ency
##alist
##itch
thie
##aded
reach
##hero
##ope
short
##antly
##ends
enough
##ths
grand
move
cla
murders
##away
##ounded
prove
gangs
gangsters
famous
##prise
investigation
singh
hostage
victim
despite
kirk
disappear
husband
ak
aut
author
cast
east
fur
hij
luck
pay
rap
##oon
##up
##aff
##ress
##ius
##yal
##for
##down
##hel
##ern
##iled
step
##illed
##une
separ
##ement
##ift
agrees
sha
loyal
##iven
##ellig
better
##ruction
esp
cond
elite
superhero
kingdom
##ways
anyone
travels
lands
expert
course
believes
professional
rule
austral
freed
veter
women
lieutenant
hijack
diam
norm
path
paul
que
rad
tit
##ges
##ih
##most
##icated
##utes
##rix
rep
##aps
alone
almost
trail
##oses
##andon
sum
intellig
abd
resp
sche
board
book
prov
cost
previous
hung
guy
feel
heads
transport
remote
survival
aliens
greatest
streets
soul
searching
vampires
deliver
imprison
techn
budd
mercen
inspector
thieves
cult
di
den
dam
equ
got
gone
given
hour
lat
low
lot
mine
mike
situ
wes
##uk
##back
##ping
##que
##ative
##ared
##ene
inhab
##ital
##itive
##icks
##asure
heist
station
fort
##ads
##vers
asks
prince
##osen
##ulf
unl
suff
ground
kills
add
leading
retire
##ruct
official
genet
199
running
anything
flight
subm
happens
demand
large
rambo
problems
marriage
public
mexico
batman
third
diamond
ast
billy
cold
double
nar
sat
self
##ne
##che
##tle
##ont
told
##ats
andre
thing
##aches
##iding
always
neigh
shad
##istan
unable
crus
spe
disp
##ude
leaders
empire
making
used
corpor
appears
engine
puts
road
experiment
creatures
rebels
richard
bodygu
matrix
romance
thinks
passengers
international
research
reporter
video
bodyguard
born
cow
jud
kind
line
mis
mist
might
mort
pie
sen
say
tim
ww
watch
yak
##uza
##lane
##can
##cher
##ped
##ered
##aries
##otic
##ada
truth
trapped
##agers
##ulation
brought
bruce
agency
##iew
exec
disaster
teacher
held
younger
arms
design
battles
reluct
calls
parents
194
seek
harry
monk
present
kidnapp
member
enemies
artist
convin
assignment
breaks
racing
support
instead
explos
ultimately
accidentally
swords
illeg
christian
patr
revolution
suddenly
program
bounty
europe
yakuza
avenge
ba
cle
cell
dom
gh
ham
jai
light
mid
pick
pull
pair
und
##lict
##br
##zilla
onto
##owed
stunt
really
proc
cho
chosen
##angers
grant
abo
orders
##ordon
trained
interest
appro
loses
complete
##ologist
students
immedi
professor
shooting
african
challeng
extre
korean
ryan
innocent
figure
navy
gambl
vegas
freedom
western
cer
cash
han
hers
hell
ju
jet
pal
pun
ran
roman
river
swe
tang
##yl
##bed
##jo
##ences
##icts
##imin
##idence
france
change
leaving
comedy
outlaw
manages
drama
news
resul
blade
knight
marsh
import
counter
create
drive
charge
justice
adventur
threatens
needs
solve
ashoke
career
anti
africa
reneg
avoid
number
veteran
queen
inhabit
herself
100
bik
der
dir
dying
field
feder
hack
jul
las
matt
pac
roy
rick
ranger
ten
##gg
##ued
##eper
##rap
##ming
##yp
##com
##vir
##where
##ined
##orge
##orious
##arian
##ille
##icate
thus
thugs
##stit
##uristic
why
##irth
##ries
##ceed
seen
chic
##ago
brad
univer
enfor
exc
exist
finding
adop
termin
others
compet
destruction
accept
futuristic
controll
kidnap
adventures
england
barb
godzilla
green
connection
motor
open
following
encounters
flying
dreams
community
possess
ragh
changes
refuses
vengeance
submar
illegal
bust
cam
doll
fant
gad
give
gab
huge
mom
mentor
pak
pret
sar
sle
sour
tv
tony
ve
vac
wast
##of
##uan
##uff
##eign
##fe
##hal
##val
##inary
##ored
toky
##ites
##ready
##ilt
##eless
##aces
##oti
store
front
already
chan
chase
##ula
##used
contain
##iforn
coming
##sequ
disc
evidence
allied
result
##ially
##tract
carl
##izes
marry
web
sons
territ
reality
else
raised
##onsible
assassins
highly
played
##press
attacked
guns
conflict
singer
wanted
edd
obs
iii
nearly
##ology
college
machines
showdown
embar
pursued
californ
reveal
information
towards
unex
desperate
perfect
david
chicago
tokyo
aid
bob
cit
cut
cir
cous
cust
code
ded
dies
emer
kim
lin
mi
pack
rid
sac
sign
zor
##rant
##lu
##come
##ndon
##esh
tourn
##ita
##ilst
##eland
##ola
whilst
foreign
##ader
##osp
##chan
london
uns
such
spect
grac
##ians
drop
killers
abs
doom
boat
##ails
robbers
murderous
superman
198
prisoners
martin
slave
boys
contract
mines
destroying
months
humanity
memory
activ
suspic
seemingly
treasure
complet
peaceful
magic
connor
enterprise
release
glob
ill
pirates
##umbles
massive
selling
eye
various
honor
troops
particip
nazi
unknown
situation
certain
inhabitants
submarine
california
tournament
10
15
11
ber
due
eld
iron
ken
lif
luc
match
our
pot
rig
sens
tor
vik
wip
##oved
##gets
##au
##ris
##ms
##lord
##era
inj
##asc
##aced
##olic
stumbles
bey
forest
##unch
age
shows
lover
suc
##earing
blue
adm
surr
##ques
prec
hunted
elimin
raid
accom
priest
##ilities
keeps
phys
english
happy
happened
bloody
rebell
arrested
journalist
victor
robots
realize
continue
pirate
challenge
causes
smuggling
border
##edding
charlie
normal
intelligence
abduct
hours
engineer
process
immediately
renegade
citiz
50
bi
fat
gordon
hires
ice
jer
jake
mu
mess
non
om
rans
ridd
sir
ver
view
##net
##yer
##hic
##pin
##phan
##kes
##kind
##ora
init
##ald
##alous
##rel
##asion
##ety
##olin
##rib
##rid
##aker
trust
seven
##agues
neo
##ived
sup
disgu
tex
abandon
events
orphan
meg
means
became
resist
respect
doctor
##athan
notorious
##ission
friendship
planning
trib
ways
partners
famil
serge
hunters
vijay
destiny
becoming
runaway
drugs
count
sky
contest
childhood
poor
point
corruption
hostages
involving
department
pilots
recruits
elect
morgan
safety
temple
earl
strike
korea
duty
flee
ninja
carrying
michel
authorities
shaolin
imprisoned
neighbor
shadow
times
pakistan
territory
unexpected
gracie
beyond
ban
done
ec
fun
goth
hide
jac
kr
mel
odd
por
pic
pos
ramp
sor
sad
sides
saves
vows
wil
went
ze
zomb
##oks
##nat
##rent
##lo
##cus
##born
##war
##ndred
##ished
##ata
##ali
hear
##owing
stan
stat
##idal
reign
reason
framed
franc
##erson
##unn
trade
prod
##oph
sea
attract
area
conqu
should
##ount
suit
exch
except
spir
ability
##asty
##ocaly
##ips
club
##ishing
##awa
surf
secre
week
serious
amaz
guys
197
devil
prisoner
slay
drif
assassinate
incident
minister
dealing
sinister
threatened
purs
mobster
##ourne
room
creature
single
##ological
chris
supposed
jew
continues
safe
horse
popular
homic
ensues
hundred
george
casino
affair
docum
cannot
jimmy
responsible
speed
ghost
important
universe
gadget
vacation
sergeant
gotham
francis
00
ball
din
did
ep
eth
eight
egg
ho
hav
lady
mir
map
ride
rise
role
treat
vig
vers
won
wedding
##aun
##cing
##tles
##ban
##pow
##win
##esc
##anced
##ishes
##atr
##inger
##itting
##rey
##iltr
##ica
##icop
##omber
##ential
##stone
##urre
whole
##ots
##ado
repl
requ
ready
alice
##oper
sequ
##osh
##ander
##usion
atl
nem
brill
shut
loves
##ended
union
sure
##obi
manage
mankind
crack
crook
goal
extra
##ects
spend
drawn
carter
invasion
helps
prostit
marine
underground
robin
pregn
discovered
escaped
##azy
player
defense
skull
ordered
influ
infiltr
minutes
survivor
blackm
arrive
lawyer
experience
created
##itten
apocaly
edge
hopes
targets
traveling
arrest
organized
colleagues
faces
facility
danny
sharpe
married
early
football
boxer
confrontation
claim
scheme
unlik
astron
cowboy
clean
controlled
sarah
eddie
elder
ransom
texas
michelle
picard
##natural
secrets
vigil
17
12
burn
birth
bomber
card
cure
came
cause
dum
dyn
fast
gala
hosp
jedi
kal
lou
national
page
rod
rank
roll
sel
wat
wind
wait
wounded
##under
##eum
##aire
##let
##hod
##bad
##jun
##xy
##ari
ine
isn
##uted
ans
dece
##unath
pred
##use
neg
##ify
logan
enters
crow
draw
teach
blind
cars
assum
clos
washing
imag
tribe
robert
somewhere
strong
streng
deser
serial
smith
location
protection
accused
steel
attacks
monster
mystery
priya
villagers
dealers
actually
threaten
##raft
##ecially
pete
starting
hitman
arrang
races
virt
jealous
mutants
believe
simon
museum
population
question
effort
teenager
foil
heavily
reveals
chaos
silver
labor
characters
residents
especially
radio
genetically
corporation
piece
aboard
federation
competition
raghunath
blackmail
unlikely
washington
16
airl
bang
bish
cab
dol
died
fought
fiance
hen
hur
jin
jill
lap
mil
mong
mix
mouse
mumb
nap
nak
nation
nine
oil
rav
sie
ur
##ove
##gar
##gen
##ef
##een
##ae
##af
##ii
##iation
##mon
##mans
##mark
##sm
##craft
##how
##dock
##ja
##ji
##vin
##zo
##kh
##ona
##ores
##enn
inm
##ither
##icious
##omic
##eth
##elet
##owly
stone
##tered
deb
##aki
alco
season
chow
##agon
##anda
##aine
arjun
conc
shin
##anted
unle
worse
cras
cruel
spec
##ably
warlord
grab
dise
abilities
newly
helicop
##oken
proves
decl
##bert
impl
trip
somehow
older
thrill
settle
##aze
supernatural
kingpin
acqu
slowly
driving
boyfriend
itself
investigating
destroyed
##bled
losing
phil
susan
knowled
joined
court
animals
talking
snow
element
holds
media
daniel
pursuit
failed
duo
youth
lethal
modern
valley
receives
enlist
nobody
character
betrayed
original
technology
mercenary
fortune
retirement
kidnapping
pacific
motorcy
source
jacques
zombies
exchange
francisco
nemesis
brilliant
pregnant
vigilante
hospital
negoti
bishop
lapd
mumbai
alcoh
knowledge
ax
aster
bow
bod
dou
dur
dad
dict
eve
easy
fug
foc
food
gar
lose
ming
oce
rome
rose
torn
van
wid
wall
yang
##gl
##uous
##ew
##rict
##vi
##hen
tour
##itious
##ilar
##ston
heir
##oted
beow
forb
##ading
##ctions
##cepts
trou
trap
here
##ember
##iff
aging
shock
looks
##anta
word
manager
cru
##avan
exact
spain
##throw
grows
##elling
##ipl
resurre
clim
scar
score
retired
decided
overthrow
triad
##ensive
quiet
coast
genesis
##irsty
devast
recently
fallen
angels
interested
heroes
britain
sinbad
threatening
sym
keeping
arrival
attempting
convince
knowing
apart
fund
rebel
obtain
bride
mutant
golden
romantic
talk
simple
native
nature
advanced
oppos
civilization
efforts
sanjay
exped
turtles
imposs
irish
heaven
distant
williams
estab
daring
idea
luke
director
castle
further
australian
australia
title
hungry
revolutionary
challenges
biker
dirty
terminator
embarks
zorro
succeed
citizens
resistance
families
astronaut
dynasty
galaxy
pageant
14
bas
cul
fan
fol
gay
hat
hire
hiding
ira
lone
pain
rout
ross
rail
tag
tort
tape
vess
vicious
wol
##nn
##rin
##rom
##rop
##ium
##mely
##fic
##cul
##day
##pan
##ergy
##onment
##enced
##itude
##asing
##asts
isra
##cts
thous
thought
ones
##ura
stal
forever
##ried
asked
decept
reun
##hern
fran
##aken
chand
##ulous
##usive
##emon
braz
unw
worst
envir
extr
drac
##coy
alliance
offers
moon
moves
##ptic
##izing
##izard
terry
terrif
murph
##attle
quar
quite
battling
common
americans
prepar
indust
relig
raise
returned
playing
accepts
harbor
headed
steals
rescued
incre
mining
investigates
mont
beloved
transfer
center
central
actor
syn
phant
fighters
generation
chem
treacher
breaking
demon
supply
millions
restore
dragons
embro
stands
liber
witnesses
fails
##borg
ruler
cyborg
teenage
mcclane
innocence
mexican
mccoy
eyes
##ienced
mountains
enlists
convicted
volcan
archae
diab
suffering
patrol
domin
extremely
royal
adopted
dollars
spectac
disease
focus
ocean
beowulf
expedition
impossible
israel
thousand
brazil
environment
murphy
bent
buck
cele
fal
fist
fav
fair
filled
gor
jur
lt
lies
mik
ner
net
nyp
ok
pan
port
rand
sab
site
tall
tina
tele
wong
wise
wreak
yuan
##nes
##gest
##ees
##ax
##res
##rick
##ique
##mi
##mes
##mers
##lers
##the
##ham
##hist
##den
##van
##kok
##hew
inner
##itable
##ications
##omatic
##elly
##ented
##ached
##str
heat
style
beat
##adi
##riel
##vert
actions
##apt
##aper
##ersey
altern
trick
chased
##aging
##anded
##ains
##estyle
ath
##ified
commer
worth
managed
croc
intrig
spent
spider
warhe
warring
##perial
##elled
mechan
clone
##oker
scene
helped
mars
overcome
imperial
emot
ending
owned
hunting
196
193
devi
recon
record
crimes
sentenced
myth
skilled
harper
rescues
films
##ronic
belong
masters
captive
subject
poison
##ancher
trek
beauty
indiana
method
explor
courage
##ynn
##ooks
immig
struggles
201
diffic
vietnamese
advis
horrif
beginning
awak
awry
turk
possible
feared
faith
successfully
uncovers
holly
particular
nazis
market
noble
covert
suspects
occur
masked
victims
conduct
addict
diamonds
satell
says
wwii
reluctant
convinces
convinced
braddock
gabriel
obsess
cousin
custom
completely
lifestyle
fatal
riddick
abandoned
007
apocalyptic
answ
henry
siege
helicopter
fugitive
spectacular
celebr
nypd
21
ace
aug
cant
dig
dun
dipl
et
earn
eating
eric
epic
fab
fict
hood
hills
ign
ja
jun
jess
jane
josh
mac
mult
nab
obl
pose
rather
rangers
sand
sole
tel
tab
wing
wins
wizard
##oom
##ney
##gie
##ault
##ram
##iors
##ten
##bing
##break
##jali
##vation
##pet
##kara
##ink
##ints
tot
took
##ato
##alion
##iless
##ionage
thail
##acre
##acles
##olesc
##leans
anjali
##adu
##rible
##rigan
##ida
##verick
dean
prim
chop
##aga
leo
nec
arun
arab
##ifact
##angled
brown
shaw
sue
cry
italy
span
spart
sport
spock
##thirsty
grim
##ella
drunk
##sey
evol
allows
allowed
shel
orleans
knights
##uda
clans
invention
scan
scen
helping
##uces
boot
marcus
##rypt
maverick
##ension
##ograp
stranded
murderer
battalion
cook
secretly
prep
compete
befriend
turning
locked
superior
195
jackson
highway
feud
falling
incred
flash
governor
learning
monsters
mayor
protecting
appar
memories
subsequ
perform
synd
susp
artifact
passes
passed
plots
germans
bloodthirsty
apes
apartment
winner
indians
complicated
farm
deput
colleague
brian
metal
forms
restaur
matters
sidek
entangled
facing
brutally
meeting
pursuing
duke
flynn
temper
ruling
figures
karan
causing
dutch
visiting
billion
passenger
ambitious
politicians
ninjas
disappearance
separated
espionage
mercenaries
demands
crusades
mortal
swordsman
gambling
hacker
waste
bobby
sacrif
suspicious
surround
eliminate
rebellion
omkara
disguise
rampage
sorcer
spirit
amazing
pursue
extraord
strength
fiancee
napole
dictator
embroiled
commerc
difficult
thailand
restaurant
25
30
az
bum
bound
bourne
cav
cath
date
diver
data
fer
fel
fay
fles
fears
gal
gig
hy
hall
haw
hench
haun
jon
jum
kam
kash
lim
lad
lay
lang
lines
mos
mitch
pa
pear
row
rain
rural
rising
tsu
vs
wre
wearing
##off
##nie
##ging
##gger
##ux
##aight
##aign
##ration
##rod
##roll
##mind
##mous
##sen
##far
##ti
##house
##bur
##bles
##jack
##zz
##zer
##ken
##work
##heart
theft
##orous
touch
##isher
##atory
##ators
##atched
##arm
##ena
##enny
##omas
##ases
##ental
##olm
##uru
##uries
##ira
stage
bean
##aders
##adem
##illing
reed
rever
alan
prose
seas
##osaur
##agi
##aint
level
nep
arth
comr
comic
brave
sho
shark
loose
loved
##ending
unless
energy
##avier
spar
allies
orb
mew
office
resour
door
blues
joker
adam
invinc
inventor
##ght
attorn
scor
scre
scott
term
background
marines
decades
##epend
trio
straight
##fully
usa
commission
secretary
humil
independ
locate
began
survives
parker
genius
stars
myst
skyn
angry
angola
handle
heroin
heroic
investigator
mastermind
prize
engaged
legion
happen
aircraft
countryside
##anche
ape
educ
writer
winter
winning
demons
russia
lords
region
greed
matter
robberies
similar
##oids
struggling
20th
##unte
refuge
holding
promises
ruled
tyr
strikes
##onymous
massacre
classic
karate
transforms
transformed
huo
district
campaign
remaining
breath
division
occup
sexy
betrayal
furious
lucky
steps
separate
hijacked
provide
equip
narc
andrew
designed
reluctantly
extreme
sweep
results
marshal
enforce
existence
fantasy
vehic
miy
absol
global
abducted
earlier
econ
surface
drifter
document
havoc
version
prostitute
bangkok
dolly
crashes
alcoholic
axel
bodies
troubled
cruise
vessel
franz
terrifying
phantom
favor
incredible
napoleon
commercial
flesh
prosec
arthur
attorney
skynet
13
300
bh
bit
bag
bul
bunch
cou
cand
cave
cattle
dal
dna
ecc
egy
fi
fier
gas
gather
grie
hust
jam
joy
kh
kap
kang
kate
kick
kersey
ll
linc
oct
pus
ri
ris
rights
rancher
sense
tick
tunn
ut
vinc
wood
zak
zone
##oor
##oad
##ev
##rob
##rently
##iac
##iest
##mber
##sa
##yan
##figh
##father
##ties
##vels
##ville
##post
##kins
##ktra
##wide
##hend
##hest
##inn
##ini
##orida
toy
tow
##atoon
##eds
inad
##oud
##ashed
ish
##entric
##stand
##oln
##ami
##amous
##otics
anton
stake
fortr
witch
##idate
##iger
deeper
report
albert
tricks
press
prime
sean
chap
##osa
##agle
leon
neut
consequ
##anged
##odile
plague
platoon
agend
shat
##iva
##ivid
##ively
unite
unique
enhan
suic
outside
outpost
##aved
##avag
intent
introd
spaces
##abor
##coon
discl
teens
allow
##astic
mega
##ocr
##ocop
##iley
##assic
##tray
blow
blown
joey
carol
assem
assoc
assault
clan
adolesc
invis
invited
attention
attitude
scale
terrible
##ucer
##uced
peas
trigger
robocop
serving
amid
owners
discovery
turner
workers
ell
guer
guide
superiors
19th
corps
feet
feels
marty
swim
kevin
academ
heading
steve
florida
infamous
persu
travelling
landing
buys
built
centuries
detectives
loser
purp
phone
jobs
consc
baron
suspected
finish
financ
rook
bigger
ultra
nightm
commando
commanding
started
chen
operative
magical
mete
regard
connected
victory
believed
romul
immort
glory
snakes
opens
colony
elektra
maxim
natural
music
services
horrigan
psychotic
type
curse
currently
thinking
walk
gains
##otten
proper
collaps
remains
develops
bullet
sales
committed
volunte
constantly
unknow
cannon
assistance
disappeared
autob
shaft
feeling
buddy
latest
##uki
suffers
##ructed
officials
##chen
execut
explosion
undead
choice
gambler
resulting
camer
dedicated
kimble
activities
globe
rigg
admir
precious
accompan
jerry
message
suppl
odds
portray
stanley
dinosaur
treatment
crooked
infiltrate
elderly
ranking
inmates
species
motorcycle
widow
forbidden
hatred
religious
transferred
chemical
jurassic
##vertently
crocodile
warheads
awakens
satellite
august
scenes
prepare
deputy
extraordinary
pearl
invincible
narcotics
miyagi
documentary
eccentric
egypt
kapoor
lincoln
tunnel
inadvertently
fortress
agenda
spaceship
aar
ari
aud
aven
bun
bach
cher
cart
dell
dangers
eat
fasc
gall
giving
hir
hind
hits
ich
jay
jade
jared
list
loss
lik
liter
lynn
miam
na
ny
nas
nur
nort
nik
ol
os
ot
od
pit
ple
pand
ric
rip
rough
rider
sid
tum
tank
tai
vo
von
vice
vast
vish
wo
wa
wan
wave
wage
wish
xavier
##uke
##iated
##mas
##sion
##colm
##tic
##time
##two
##taugh
##hot
##bon
##bes
##bar
##body
##zen
##xx
##pre
##kov
##wal
##well
##woman
##wise
##waki
theod
##ining
##ndel
##nday
##ano
##anny
toug
often
ingen
##iti
##iling
##omon
##oul
thomas
##enty
##olate
##urch
health
stuck
beast
ford
forcing
##veill
deals
reject
reward
frust
##aplane
##aks
##aking
alter
alth
##cend
traff
seal
chip
church
##ained
atomic
arist
##essive
##essary
##emen
##employ
brandon
broken
shop
share
shape
loot
unaw
unemploy
manh
crazy
goons
expect
spl
spot
##aba
##umi
##umed
drin
newest
willing
willow
worldwide
knife
##plane
clues
invaders
##ossa
sci
friendly
planned
murtaugh
surpr
surprise
surveill
decision
armor
missile
##quar
maid
weak
wayne
##ogg
string
struck
endanger
escort
detro
individ
discovering
novel
worker
missions
parts
johan
supermark
corner
earthqu
account
skin
skelet
harass
harsh
trains
mostly
infected
minor
##lessly
##bling
surviving
alias
acting
confeder
phot
airport
airplane
militia
##keeper
creates
telling
wrest
joining
obst
farmer
magician
magnet
depicts
collect
formed
formula
regime
explo
greedy
grendel
##ibility
needed
embark
includes
faced
germany
medical
christmas
social
followed
opportun
crossed
duel
effects
promot
templ
rules
hotel
malcolm
mccall
ryback
testify
systems
caused
employees
amongst
championship
collision
guards
balian
factions
twist
honest
holy
developed
bullitt
boxing
vengeful
nickn
origin
loyalty
superheroes
hijackers
titan
##ihil
summer
summon
costs
buddhist
1999
mistaken
senior
ww2
kidnappers
patrick
picked
approach
approaches
sweet
adventurer
##coming
enforcer
connections
sleep
wasteland
carlos
emerges
injust
accompl
neighborhood
position
##borne
homicide
epis
ethan
shuttle
influence
louis
waters
closer
arranges
mixed
debt
shinobi
thriller
routine
mikey
random
intrigue
advisor
hollywood
syndicate
sacrifice
haunted
mewtwo
enforcement
##fighter
enhanced
academy
meteor
dellaplane
miami
##walker
theodore
although
unaware
surveillance
detroit
supermarket
500
72
80
ae
ach
aided
bon
ble
cly
cub
cyn
dag
darth
dawn
either
fit
fif
freak
fix
fired
gary
games
hart
hole
homet
jenny
kit
kun
kog
kings
kelly
krypt
ly
lon
les
lion
mum
mia
mail
nic
nand
pen
pad
pig
ron
ral
rate
round
rape
rush
roper
riley
si
sight
sick
saw
saving
saga
tact
tuck
um
vent
voy
vader
wand
wang
wound
wishes
yul
##ox
##oze
##nard
##gb
##gon
##rison
##ios
##mel
##main
##more
##mother
##mond
##lim
##sp
##set
##ym
##ford
##field
##cow
##tab
##town
##hi
##hold
##bel
##va
##vy
##vision
##vada
##pa
##pires
##kar
##kete
##wart
##head
##eral
##iner
##inity
##ana
toxic
##isters
##ati
##itor
##iting
##itions
##icates
##iceless
##outh
iss
isol
##eld
thwart
##utation
##ache
##imer
anak
stories
bei
beam
bever
beij
##illusion
aspir
deves
repr
trag
troy
trait
pract
priceless
##opath
seize
##osl
##ching
least
leary
attra
nevada
concer
brain
broad
aged
agree
shah
loan
##allion
entr
outf
manip
cred
aftab
ital
intense
spies
spree
sports
spends
##uman
##umber
grow
grave
grace
grown
growing
dram
##owned
disgr
disillusion
##ichi
teaches
allan
##ocks
mog
blof
canada
helpl
carn
##play
clut
advers
adapt
##olds
scot
wasn
##achi
##seless
secure
##reek
capable
capital
##quel
tried
colomb
empress
##ffen
desire
quinn
coach
coff
cooper
throw
thrown
escal
amount
complex
comprom
stopping
setting
seeing
recall
returning
swears
playboy
throughout
moving
skill
headquar
steffen
slip
driven
charles
charged
angre
learned
filming
maybe
maynard
belle
##airs
appre
appear
buy
buff
survived
perm
perpet
samuel
consider
arrived
meaning
experienced
convicts
bandit
gerard
trev
hoping
operations
object
arrests
involve
brig
hardy
bombing
regular
bringing
jean
##ibly
motiv
motaba
couldn
solomon
robotic
companion
gladi
lara
moral
darkness
medallion
failing
muskete
civilian
186
expose
stealing
tyrant
##ette
buried
cyber
teenagers
aval
foster
walker
heavy
targeted
millionaire
kirby
bald
tae
announ
merciless
twin
ambush
estr
##laim
receive
ideas
vega
divor
direct
2000
grandfather
aka
authority
rapid
reputation
intelligent
schemes
feelings
genetic
dispatched
richards
disasters
monkey
midst
stuntman
above
interesting
palace
ranvir
counterfe
adventurers
camera
pretty
contains
circ
cousins
custody
packed
sacred
dropped
absence
doomed
suspicion
berlin
potential
viking
wipe
##ascar
surrounded
initially
##ribly
orphaned
skywalker
shadowy
sadistic
wilder
hundreds
sequel
skulls
roller
inex
assumes
miles
ravaged
elements
asteroid
exactly
devastating
iraq
brazilian
false
network
sabot
alternate
answers
canton
telep
necessary
befriends
suspended
sidekick
catholic
jonathan
moscow
##burg
comrades
scorp
mystical
equipment
candidate
invisible
purpose
rookie
nightmare
immortal
salesman
unknowingly
riggs
bachchan
northern
unemployed
earthquake
confederate
obstacles
magneto
opportunity
injustice
hometown
krypton
voyage
yulaw
isolated
anakin
beverly
beijing
devesh
tragic
manipul
blofeld
helpless
22
24
bot
bay
bure
biz
cod
cob
coc
cock
cale
cities
erupt
fake
fulf
gul
gavan
hr
hill
holl
hides
iz
iga
izo
jan
junk
ku
ka
kend
kaur
kgb
lust
lane
mas
mary
mater
morn
nu
nice
names
nunn
ooze
pure
pok
pict
rs
rong
rik
rises
rita
sak
sach
samp
sah
sisters
tat
tail
ug
wer
wel
wess
your
##oft
##gart
##uction
##ez
##eks
##ao
##aj
##ror
##rest
##rass
##rud
##rants
##iar
##iod
##iachi
##mate
##light
##sk
##sed
##sky
##fare
##frey
##cast
##tar
##tag
##haps
##ba
##bs
##bol
##bul
##brel
##dan
##dinary
##jam
##jection
##vous
##zy
##zh
##wan
##80
##13
##hem
##inawa
##ani
##ances
##oric
##isation
##arre
##arch
##edly
##aland
##outs
##asures
thug
thunder
##acing
##stal
##urance
hears
##ima
stock
stones
beating
wits
##lyn
##lym
asia
alc
ally
alph
##unning
prat
pros
prith
cham
chasing
chronic
##agen
##aining
##eston
league
neha
neither
nefar
archer
conver
##angel
plant
bron
brook
shang
lovers
unc
outer
cris
crooks
afgh
afra
##avia
item
exit
spre
##abh
##abeth
##ummer
warfare
socc
##eller
disl
tec
evely
sheep
shekh
newcom
ordinary
meh
meant
##iple
respected
moor
knock
carries
##izabeth
##iously
##issance
proceed
mariachi
retreat
pows
understand
peak
##ailing
triang
mah
weather
weeks
##enson
##ogs
##ogy
desc
usual
quater
murdering
cool
groups
throne
deadl
prey
deton
details
locks
sett
elwood
elizabeth
begun
guilt
191
raf
feat
##fty
access
sentence
movies
harm
harv
harlem
slim
slater
slaves
drives
charges
flat
flam
infant
##road
protects
below
longer
acts
subur
period
perhaps
searches
artem
happening
petty
sax
##ancy
chef
edward
rebu
hostile
##uchi
depict
godfrey
brief
miller
install
benef
merch
vision
visits
mutiny
launch
standing
larger
snake
ops
colonial
oppon
opposed
oppress
##ova
##bean
popul
ruins
questions
effect
sharp
187
roger
rogers
expensive
tracks
strip
current
relationships
ensl
impact
austin
gaining
raging
ragtag
irres
##otte
employer
brutality
balance
khanna
smugglers
model
diego
villains
desperately
saved
divided
trucker
assistant
charlotte
lesson
maintain
shortly
grandmother
movement
claire
souls
delivery
addition
neighb
judge
pieces
senator
explosive
hammond
pulled
choose
challenged
punish
bikers
excav
adopt
pretends
frontier
obser
embarrass
signs
spectre
senses
wiped
physical
tribes
krill
zealand
slaying
jewel
homicidal
documents
ghosts
##power
sequences
claims
cowboys
draws
laboratory
seasoned
unleash
unleashed
warlords
negotiator
romeo
resurrection
symp
establish
culpr
unwitting
treacherous
volcano
diabol
gorilla
okinawa
television
horrific
obsessed
fictional
jaide
total
spanish
scanners
apparently
billionaire
sorcerer
gigantic
henchman
langu
paid
commissioner
sweepers
grieving
risk
woods
pressure
##ivaji
adolescent
executive
aaron
hiram
likes
nasa
nurse
wonder
split
drinking
episode
cynical
koga
mummy
umbrel
issues
attraction
italian
clutches
perpetr
estranged
wilderness
bizarre
cocaine
kaurwaki
pokemon
ugly
wessinger
prithvi
nefarious
brooklyn
afraid
soccer
evelyn
shekhar
quatermain
umbrella
47
44
aur
aish
aces
bes
bed
bid
bones
bott
bitten
cos
cort
cody
dil
das
dod
dust
dance
dail
duck
era
fed
fend
fisher
git
gri
gate
gates
gaur
gift
hig
haz
hock
ic
jord
jason
kak
kyle
lic
lam
lack
lily
lai
lib
mes
math
mick
ober
obi
pas
pard
pally
rol
rif
rio
ridden
rosa
sher
sout
sidd
tas
tong
tah
tib
taught
tiger
useless
vul
vend
wu
wy
woo
wield
ye
yellow
zack
zoo
##oe
##oi
##oen
##night
##nish
##uf
##uation
##uable
##eed
##roc
##raged
##iat
##iates
##mese
##life
##fly
##fall
##fred
##cil
##case
##cked
##cape
##tock
##hai
##bal
##burn
##bourne
##dy
##don
##just
##view
##ply
##kl
##hecy
##inent
##ination
##esar
##oro
##ori
##oral
##orado
##isman
##ares
##arily
##aroo
##eda
##eding
##alry
##itation
##itect
##itted
##itarian
##itabh
##iler
##icons
##icating
##asingly
##etic
##ste
##olas
##urer
heal
##imes
whate
##oty
analy
stab
stry
bear
forg
##adel
##adition
##rial
##iday
##igley
ashe
rea
reaches
fresh
alask
alche
trom
traged
trinity
tradition
##opian
chair
chips
##agn
##ando
##andest
herman
##emned
conce
##ifies
##angi
ages
aggr
shak
shown
shog
lov
##antis
##antage
enorm
outcast
manner
cruc
exh
spo
spr
spring
##abe
##umble
warning
warden
grues
graff
##cogn
measures
beck
##assy
##assad
reser
resol
monday
block
blond
cancer
##ption
helm
knew
##ments
carib
##plic
clay
clum
clue
cloud
clandest
adit
invaded
attend
attached
##issary
terms
terangi
##icken
##appy
surg
marl
marian
##orde
##orda
triads
##actic
##active
nowhere
stranger
parties
desolate
descend
uss
quigley
amus
amitabh
deaths
hunts
hunley
girls
indeed
compat
smart
destined
stops
locals
escaping
parent
guid
guine
##azing
superpow
192
corb
##atern
devious
raising
reck
recent
johnson
johnathan
county
council
swit
swiss
keek
everybody
players
moved
acrob
harley
towns
slick
flow
interfer
destroys
protected
pride
capturing
busy
remember
appo
apprent
sincl
subway
samar
phoen
barg
bars
ships
fourth
arriving
artists
artific
roam
biggest
creating
wanting
nightcl
bloodl
##ancing
assigns
check
chekov
written
tread
hitmen
politics
obvious
complications
nearby
involves
##arek
gods
brid
bribes
hardened
bombay
regain
dreaded
showing
jeff
mutual
animal
include
realizing
badal
talisman
releasing
glass
larry
largest
simply
raja
russians
babys
frankie
christine
muslim
crosses
rukh
promising
sharon
catwoman
defender
psychic
psychopath
earp
patient
tracking
renowned
tomb
personality
burmese
cursed
turbul
communist
foes
mcclin
improve
mount
think
ensure
rocky
walter
deepak
dutt
prophecy
employee
disappears
guardian
taft
annie
revolves
twenty
valuable
ambassad
estate
received
crashing
dogs
savage
researcher
lui
architect
sudden
auto
condemned
radiation
delivers
cultural
equal
satan
andrea
mistake
mighty
execution
battleship
explosives
marshall
1000
federal
julien
matthew
ricky
fantastic
moment
discip
##pressed
gunsling
revealed
circus
emerge
liner
riders
participants
sensitive
injured
rebellious
countries
hideout
##load
attractive
slayer
pursues
supposedly
didn
atlantic
december
virtual
silverstone
airlines
cabot
hurt
mongol
graboids
enlisted
doub
symbol
opposing
establ
astronauts
culmin
gaya
railway
tortured
decepticons
draco
increasingly
treachery
archaeologist
##vania
athlet
emotional
methods
immigrants
particularly
conductor
21st
diplomatic
jesse
multiple
obliter
primitive
subsequently
cavalry
wreck
nephew
resource
independence
occupied
vehicle
economic
prosecut
fierce
antonio
neutral
consequences
##aborate
##ocratic
peasants
conscience
financial
romulus
maximum
property
autobots
avenger
bunny
ichi
ripley
frustr
individual
templar
nicknamed
clyde
ralph
wounds
repres
disillusioned
cooperate
headquarters
apprehend
involvement
gladiator
bureau
cocky
material
sakina
sampson
werner
alpha
pratap
chronicles
shanghai
afghan
triangle
rebuild
diabolical
cosm
daily
libr
siddh
wielding
whatever
analyst
stryker
shogun
enormous
gruesome
caribbean
superpowers
sinclair
phoenix
artificial
nightclub
mcclintock
36
93
aub
aunt
bav
bast
bord
bison
bills
ced
cot
cull
cunning
da
dul
dive
dian
doy
duc
ditch
dwar
eas
easter
etern
fell
fame
fern
fift
fishing
fogg
ga
gent
gem
gob
gaul
gym
hang
hans
hook
ibel
jes
jett
jenn
kat
kent
kag
kish
kling
kesh
kuru
lud
lake
lyle
mang
moses
ned
nam
nations
nascar
ou
olym
pits
pitch
rot
riv
rub
sugg
sars
sunk
size
tan
till
ties
tide
tatt
tets
tiny
vl
ven
vid
via
wear
wander
yu
yard
zion
zordon
zato
##ozen
##ni
##uo
##uate
##ublic
##eal
##egr
##rack
##rous
##rist
##rich
##rage
##rine
##rane
##rising
##iper
##mat
##mir
##mun
##math
##maker
##morda
##lon
##lun
##lock
##sia
##yers
##yard
##fight
##fort
##cp
##cru
##ta
##toman
##hy
##human
##hagen
##bag
##bie
##brid
##dog
##ju
##juki
##zan
##zens
##zona
##xmi
##py
##pired
##pulous
##paper
##01
##wit
##wol
##47
##heal
ther
##ero
##erous
##inct
##inations
##incts
##oning
##onse
##org
##orig
##ormer
##orrow
toa
tok
##isf
##atown
##atron
##arts
##arms
##enc
##enhagen
##edev
anderson
##inga
inject
##alem
##itland
##ils
##ication
##asi
isla
##etan
thorn
##acelet
##step
##urally
##imp
##imate
##iro
##irm
##amante
##lewood
anant
anonymous
sty
stir
stav
stakes
staff
beans
beach
beasts
##adha
##rier
##right
##vey
##idon
##iders
asian
reese
repe
rejo
rejection
franta
fratern
frozen
tra
traut
trunk
price
preston
##opher
##opard
sept
chi
chon
chal
chim
chad
chain
whether
##osis
##osal
##osely
##aints
##using
##usalem
levels
atom
arise
##inda
hercul
##emption
placed
brody
bracelet
hasn
shank
shash
loosely
##antically
##ender
##ieval
unin
unus
enzo
enroll
enzy
enraged
manj
manch
manny
manuf
cra
crush
croft
goon
expected
exiled
exotic
intention
spike
##ables
##abouts
upside
##perienced
aftermath
##ello
##arded
disast
disrupt
display
##ichrist
abr
abb
abuse
aborig
evac
evict
takumi
getaway
sheik
##astrop
megan
offer
offered
resign
dozens
blest
canal
helen
knives
carver
cargo
carbon
note
##udy
clown
clock
cliff
##oryo
adult
admin
invading
scroll
##attan
boston
proof
surfer
whereabouts
decor
decis
capsu
armies
armour
undert
image
##retti
colt
empt
maitland
copenhagen
strain
strict
coven
thrust
throws
##ignment
downtown
ammun
prem
powered
powerless
menace
seth
missionaries
elude
elora
elusive
superv
runner
devgan
##ocket
rafe
recl
battlefield
highland
protagon
prototy
fei
swed
swall
stark
starship
chinatown
kept
everywhere
harvey
cream
stev
stealth
slaughter
contem
contend
anymore
interp
##orna
heroine
mineral
persian
monks
##iere
presence
presumed
inspired
transm
transyl
evening
humanoid
prior
captiv
captures
bush
remo
remove
memph
thanks
blacksm
syd
bonds
puri
purch
##ricks
laws
lawman
airborne
finnish
poacher
points
profion
saab
##ancer
cheung
fuel
werewol
trem
trey
controls
oboro
arrog
peacekeeper
magn
maggie
magadha
racers
racist
suppor
hardship
instantly
instructed
explode
##porary
dread
benjam
mutated
legends
motives
embassy
solar
entered
laid
laxmi
badly
redemption
talent
##oof
recruit
profession
sniper
shootout
opening
202
morris
ashok
streetwise
identities
identify
babu
medieval
ramsey
antichrist
witnessed
wildlife
promise
sharks
catches
catastrop
squire
builds
neverthe
drivers
psychologist
typ
tyler
tycoon
##naissance
rivalry
tommy
tomorrow
hearted
computers
personalities
burke
burma
possibly
##nedy
ryu
ensn
karen
karel
deeply
huang
alexander
confronted
navig
policemen
erin
tax
tajuki
annihil
baseball
modified
minds
changed
ambul
storms
uneasy
internal
darren
daredev
flees
fleet
silent
refuse
salvation
committing
contacts
perfection
brew
lux
sunset
tasked
constant
assisted
micro
micheal
origins
reaching
akira
raped
kingdoms
landscape
veterans
paths
##ihara
republic
response
boards
transported
imprisonment
culture
damage
damaged
equally
fortun
corporate
experimental
designer
1941
swordsmen
revolutionaries
hellboy
july
tangles
tanglewood
outlaws
newspaper
dirt
hackers
bradamante
barbar
barbarian
possessed
possession
gabe
linked
mi6
unscru
drops
1985
certainly
kennedy
vikings
physically
abducts
citizen
biological
jerusalem
verge
verma
##ribution
trusted
orphanage
megatron
respective
electronic
pakistani
banks
hearts
producer
attracts
attracted
conquer
weekend
seriously
jewish
jewels
haven
##atraz
atlanta
atlantis
influential
cardinal
kalinga
selene
inev
deserted
arranged
virtually
mongo
inmate
concorde
implicated
settlement
acquired
durga
shocking
words
resurrect
opposition
14th
painting
railroad
wolver
##rinks
stalked
reunite
reunited
extravag
dracula
synthe
archaeological
domination
thousands
fairy
mechanic
reconnaissance
mythical
belongs
immigrant
nobleman
addicted
diplom
fabled
ignor
junior
poseidon
chopper
crystal
spartan
evolution
shelter
feudal
flashback
subsequent
surrounding
bumbling
hawk
kashmir
##zerland
reverend
refugees
bitter
bully
cougar
ticket
utah
vincent
##iacal
chapman
leonard
shattered
suicide
introduced
disclose
guerr
regardless
collapsed
volunteers
cameron
supplies
arizona
cheryl
literally
ottoman
toughest
rejected
manhattan
twisted
achie
fifth
kunlun
loner
ronin
venture
aspiring
dramat
escalates
trevor
motivated
musketeers
avalon
baldwin
rollerball
fulfill
gavanas
morning
picture
welcome
alcatraz
newcomer
meantime
deadliest
unwittingly
jaideep
gauri
hockey
jordan
kakihara
mesrine
southern
tasks
wyatt
##stein
stabbed
forgotten
tragedy
graffiti
clumsy
amusement
guidance
guinea
switzerland
apprentice
patients
ambassador
gunslinger
resourceful
afghanistan
librarian
aubrey
bavmorda
cotton
cullen
doyle
fernando
fifteen
ibelin
jesus
jennings
keshav
tetsuo
vlad
zatoichi
trautman
hercules
shankar
manufact
disastrous
capsule
prototype
transylvania
memphis
blacksmith
nevertheless
daredevil
unscrupulous
synthetic
27
400
70
aeg
ailing
bly
bos
bold
bail
bike
bugg
bah
bugs
cn
ce
cin
cet
cite
cable
dy
dh
dim
dick
dull
dating
dix
dante
dune
dyl
dancer
ein
eun
eagle
fans
faster
fury
gave
gulf
gorge
guru
greek
ha
hap
hip
hick
hatt
hank
hates
hair
hoo
hoop
hyp
iv
iq
ibo
jas
kan
kol
kab
kah
kane
lanc
lights
lived
lavag
ment
mol
mam
mun
mile
mold
mild
muth
mental
nun
nich
nris
nsa
o2
osm
py
ped
pent
pap
pul
pant
pav
pool
picks
penn
poker
pension
qing
rum
rath
riz
rely
range
rudy
sg
sed
sort
sound
sung
sith
saint
sanche
sivaji
ti
ts
tic
tam
tap
tast
tens
tub
uk
util
vrinks
wed
wade
wake
wann
xxx
yin
yuk
zane
##oh
##oos
##och
##nings
##gin
##gic
##gom
##gust
##gate
##uary
##eu
##eath
##aud
##rd
##run
##rum
##rows
##rative
##iate
##iets
##iable
##iquel
##med
##mid
##mart
##mist
##mine
##mates
##moth
##making
##ll
##lam
##ss
##sive
##yon
##fon
##fun
##fast
##fire
##cles
##celled
##te
##hd
##hon
##bab
##bian
##da
##di
##dam
##joy
##vich
##zhe
##zed
##xter
##xious
##po
##part
##pace
##pse
##ko
##ki
##kers
##wary
##86
##heer
##hetra
theater
theories
##erv
##iners
##inted
##onto
##ester
##orop
##orth
##orman
toorop
##atives
##arct
##arge
andy
andro
inher
##aloman
##alty
##alistic
##ito
##itar
##itage
##itute
##ittered
##rez
##real
##ila
##iles
##ilpa
##ilogy
##icit
##oms
##asher
##etcher
##elot
##elve
##uther
##enth
##acc
##acon
##acement
##stander
hein
heights
whit
##ird
##amis
##aming
##ambo
##othes
anna
sto
stun
stall
stole
stumble
beer
beats
fors
forge
##rian
##ript
##riots
dea
rein
reass
reyn
##aya
frantic
##aph
##apse
whoever
bystander
alt
alain
alzhe
trilogy
prone
##ops
##opp
##opol
sect
sevent
semi
chases
chappy
##osity
##agement
##agami
##ulu
##estic
##estruct
atroc
neill
arn
aren
arson
aragami
##essa
##esses
##ession
heritage
##ema
##emony
##emaker
conan
convent
concl
##iform
coma
##ously
##oda
##odox
plut
plain
plummer
brand
broke
brink
shag
shall
shake
shred
shilpa
loving
loaded
##ieu
##iece
##ivorous
unst
unbe
unrel
unpre
unjust
unorth
uniform
worm
##ateur
##ounts
engr
enjoy
sud
sund
outback
outwit
afoul
##avell
##avior
spear
##ume
##uma
upper
upcoming
uphold
uprising
warn
grind
grav
groc
grud
graves
gradu
##iances
dry
drill
killian
##ards
##ardly
##cock
##ownst
dism
disk
disab
disgust
theme
abh
abrupt
evade
evangel
shed
##ipal
##gee
##geon
poll
polar
blair
blaze
canine
cancelled
##ptly
##kshetra
##athy
knuck
cares
carmen
carla
carried
##izer
claw
clash
clark
clones
cloning
invade
invites
##okes
scr
scam
science
scared
terribly
##icky
##icker
planes
##ikawa
booth
suraj
marie
retain
retribution
decade
caps
caper
armaged
armored
##rupts
##berg
##quis
imhot
trial
trigg
cole
colossa
colorado
emissary
##actor
robbed
robbing
somewh
##ogan
##iction
quit
quad
quasi
brotherhood
coer
commits
##eye
downfall
amr
amanda
amnes
amateur
owns
humor
humble
hummel
indestruct
novels
relies
beings
worked
menacing
smoke
destruct
realise
located
elle
elaborate
parach
parody
guise
guitar
##azel
##aterrest
##ecrack
terrorism
devices
rai
reclaim
##othgar
feast
feats
sworn
swift
keong
keats
##ashi
headl
creasy
slum
drift
##iddo
charley
charming
income
flame
fletcher
informer
interview
handful
handedly
miners
minions
minute
attacking
destroyer
filmed
month
##alsrud
##blings
insul
insists
insurance
humanitarian
##ahan
captors
remn
remem
appearing
greater
##engu
pharm
engage
mysteriously
behavior
shipment
wells
scientific
mobsters
putting
attempted
##ussy
passing
passport
roof
##suit
plotting
commanded
blooded
profile
said
apache
edison
editor
winnet
rebirth
hitler
hopeless
tarzan
wouldn
joint
demoted
specialist
russoti
organisation
##yssey
depths
raccoon
suppose
bribe
bright
instincts
instrum
restless
topper
dragged
studying
regret
regiment
explain
explod
grey
probation
probably
connect
majority
beneath
visited
donald
freez
jeopard
mute
norman
motion
embr
embittered
##phin
entering
entertain
believing
successor
laun
tales
talks
talented
stander
immense
sne
shoots
rajan
207
203
moroc
ashore
ashwin
continents
liu
liqu
medal
natives
ramon
advantage
danish
mrs
antarct
musical
musician
oppose
safely
safari
sanity
188
cats
defended
defending
sometimes
marries
patience
defeated
awa
renard
burgl
cycl
malay
malhot
turf
severe
communications
foe
foh
homes
masses
fearing
fearless
rocket
transforming
austrian
despotic
irre
irwin
distress
naval
determination
cleared
ern
gamera
mcken
collapse
faction
footstep
jungles
tao
vetter
bored
variety
##knownst
chau
chaotic
sheridan
informed
camps
minded
twelve
valent
thirty
changing
holiday
soviets
villainous
postman
afford
bullets
bullied
salv
savior
savvy
contacted
breed
numbers
##going
recovering
construct
davy
direction
factory
occas
truckers
encountering
claude
disappearing
automatic
##ihar
repair
abduction
provides
costa
transporting
technical
diary
denver
latter
latino
situations
satisf
shadows
crusade
crusader
misf
1943
1944
baalsrud
domestic
midnight
westernized
hancock
punks
ranks
adventurous
derail
derring
julia
pacif
univers
accepted
barbossa
dollar
momma
sleazy
chances
revealing
circle
zorin
unsus
1980
activist
completed
participate
participates
101
kenobi
potent
vikrant
sucked
admit
biologist
initial
supers
megaloman
megiddo
tribute
tribulation
familiar
contestant
unexpectedly
banner
posing
hearing
status
statue
conquering
amazon
1971
incidents
ballu
mirac
miranda
##adoes
require
prostitutes
infiltrates
burned
burnett
birthday
kalle
loud
selected
waiting
deceased
crowd
imagined
deserts
jealousy
radioactive
hurric
nakano
urban
crashed
cruelty
declared
implanted
negotiate
alcohol
asterix
doug
rosewood
heiress
devastated
funds
succeeds
foley
taggart
torture
wolf
unwilling
extraterrest
quarter
prepares
industries
increase
volcanic
diablo
focuses
environmental
nerve
panic
portal
telefon
wreaks
wreaking
mechanical
emotions
explorer
occurs
customers
answer
celebrated
dunston
oblig
tabrez
chopra
##ographer
cookery
apparent
artifacts
temperament
sorceress
galact
jump
limit
limits
tsui
wrecked
nepal
sharkboy
sparrow
resources
screen
independent
tyrann
tyranny
andrews
absolute
econom
baghd
hustler
kangaroo
octop
pushes
tower
chapter
suicidal
ellie
persuade
collapses
cannonball
admiral
accompanies
dinosaurs
gallery
naive
nyman
nikita
oliver
odyssey
voice
vishi
vishal
traffic
churchill
surprised
harassed
exploits
promotion
summoned
sweetheart
ae86
nandini
pigs
siblings
tactics
traitor
concerned
disgraced
mogambo
carnivorous
scotland
coffee
compromised
buffy
objects
divorce
directly
counterfeit
inexperienced
botched
cobretti
gulab
hrothgar
holland
izmer
nui
sahil
mehra
settlers
features
harvard
flamboy
infantry
suburban
saxon
depicting
merchant
opponents
populace
enslaved
neighbour
excavation
perpetrator
aurora
aishwary
highest
license
oberoi
alchemist
conceal
exhib
clandestine
corbin
reckless
bridge
babysit
mongolian
doubts
established
prosecutor
neutralize
frustrated
cosmic
goblin
kurukshetra
rivals
rubber
thorne
september
shashank
manchu
administ
decorated
empty
covenant
premiere
swallowed
stevens
interpol
poachers
tremors
arrogant
benjamin
2029
ensnared
taxi
luxury
inevitable
wolverine
ignoring
flashbacks
aegis
buggy
ceti
dylan
eunuch
gorgeous
hooper
iqbal
lavagirl
mentally
mammoth
muthu
nicholas
osmosis
sgt
sanchez
tsuda
ticlaw
tensions
android
reynolds
alzheimer
atrocities
shredder
unbeknownst
unorthodox
grocery
evangelion
armageddon
imhotep
triggers
somewhat
amnesia
winnetou
antarctica
malhotra
footsteps
baghdad
aishwarya
28
2nd
32
3rd
40
48
51
60
6th
747
8th
800
aj
aim
aly
aver
apr
ahead
bm
bak
bart
bug
bone
bath
barn
beng
bha
bait
baker
benson
bihar
ca
cad
cang
cbi
clem
cze
cache
creek
cesar
coryo
css
dw
dent
dall
dave
dates
daz
dons
dale
diving
dines
dub
eug
eager
erupts
fue
fud
frid
fried
firm
gi
gon
gir
gill
gest
gian
gage
gide
garn
gask
gerson
hid
hous
hug
hate
hob
hence
hors
hounded
hicks
hooks
hogg
ire
jou
jag
jang
jage
jens
jup
ko
kl
ky
kle
kay
kob
kiss
kors
kaz
loun
lith
luthor
lola
lazy
lumber
lulu
mow
mch
mate
mall
mud
mout
male
mugg
mih
maced
nut
nest
nose
nages
nosed
nathan
nasty
nihil
oh
ocp
paw
pact
porn
punk
pawn
poses
psion
pimp
qin
rh
rit
rent
rop
rus
rack
rang
rage
rally
rash
rare
rib
riding
rhod
sang
sant
sust
song
soup
sorts
soph
santa
sorna
tin
tight
tip
table
tears
tests
tips
tension
ves
vann
wis
wah
wynn
xer
yan
yat
yug
yog
yash
yager
yee
zen
zero
##over
##ooth
##nis
##nic
##gers
##gos
##gency
##uing
##ule
##uart
##uard
##ean
##aver
##ajo
##rad
##ros
##rus
##rach
##rog
##rille
##iya
##iatr
##iyan
##iavell
##mo
##mop
##medy
##member
##mouth
##lan
##lic
##lie
##lum
##lov
##sula
##yla
##fu
##fig
##finger
##cro
##tz
##teen
##hm
##hit
##hwar
##hburn
##bow
##bru
##dess
##drop
##jan
##jud
##vice
##vian
##voy
##zou
##zie
##zard
##zov
##xes
##xing
##phe
##pid
##pher
##ponsible
##person
##patr
##will
##ware
##75
##hesh
##hetic
theory
##inated
##inates
##inery
##inetic
##nda
##nders
##onian
##esir
##anch
##anix
##anoid
toll
##isa
##isp
##atches
##enity
##encer
andert
##ington
##ingham
##itary
##itance
##itated
##itement
##reg
##rew
##rect
##render
##ilong
##ilder
##ilton
##omi
##omer
##ouri
##asm
##aser
##asim
##asive
##asons
##ashes
isab
##eto
##eta
##etime
##etora
##elak
##eloo
##acus
##sting
##stick
##olo
##oli
##ols
##olar
##oled
oncoming
##urp
##urah
hey
heels
##imir
##imated
whirl
##iring
##oto
anal
anth
anxious
stow
stick
stuff
stuart
bears
forward
forkl
##adian
##adsh
##adicate
##riot
##rive
##rialist
##ribed
##tery
##terior
##vember
##idani
##igs
##igan
##illas
aside
deed
deem
deaf
deuces
depressed
reich
reaper
recogn
reasons
##ayer
##ayan
fry
frames
##aptra
##akers
##akure
##akash
##akov
alley
alleg
alfred
##unity
##uncul
##unaptra
tru
trop
troll
tracy
truce
traces
prow
prakash
seok
seattle
chag
chanc
##osing
##osure
##andy
##andan
##andal
##ainted
##usc
##usions
##chin
##chaun
##chanted
lex
lew
leak
leone
leia
leiter
lepre
leeloo
atm
neil
neelak
arous
arche
arsen
aramis
##essors
herod
conj
conven
conced
congr
comet
plag
plates
pleth
brun
brood
brains
shi
shy
shif
shame
shane
shady
shov
shift
##isty
##istent
##antine
unve
unoff
worry
worms
##ustom
##alla
enam
entry
ensu
enchanted
suen
suave
##ober
outbreak
outrage
mans
manick
manson
crit
craz
crock
##aville
exer
exists
extract
intens
intends
integr
spons
splin
spawn
spencer
##umer
##umin
##thos
##thood
ups
warm
waring
warren
soft
afterward
gray
grail
gruff
groom
grazing
grogan
##ellor
drown
drool
drake
dispar
dishon
disfig
teeth
abusive
eva
evident
orin
orlov
meyers
##ocq
##ocate
##ocross
##urel
##ipher
##ipse
##asses
resem
moore
##ansh
##iah
blast
bloss
cane
canadian
worlds
##athic
##ortion
caravan
carrier
assaul
notes
##ples
##plant
youngest
youngster
client
closed
adul
invades
attrib
scrap
scuff
scores
washburn
##achia
##ickers
backed
##ishi
murky
##ucia
##ikaze
books
surrender
marks
marked
maroon
decay
decrees
##ordinates
gangland
undergo
##pped
##pping
##ppets
otherwise
overd
peking
##ailable
misses
missiles
missouri
##quer
imf
immin
teamed
trials
trips
colors
colton
emm
empires
maz
maurer
robby
##inson
##enses
##ogen
##oguchi
makers
howie
howard
stray
strah
stricken
stranix
partis
##weight
oldman
##osevel
usurp
qui
quits
quitting
murderers
coh
coco
cooney
famed
thrilled
daylight
serve
serum
serenity
ended
endless
amy
prehist
prequel
prejud
detention
indo
noon
noel
novice
november
relent
related
reliant
calling
smok
smooth
missionary
elud
elaine
parad
paranoid
paroled
guess
guile
##azza
genre
gennes
superhuman
##cedented
corners
terrorizing
devour
devised
devlin
devoted
rao
recreat
jackal
##astery
battleground
feisty
accusing
swash
swann
starfighter
keen
kebab
everyday
##aii
defuse
ski
skies
harb
steele
slain
slasher
anyway
fallon
formerly
anger
angar
fled
flick
flood
infect
infection
interests
schmid
scholar
heroics
miniat
##ucky
justin
##rovich
persians
monastery
mayhem
##blical
protector
homeworld
transit
transplant
##arkov
removed
appeal
buying
schools
centered
active
actual
sinks
sinking
escapees
gunman
gunner
threats
subst
captains
idyl
peril
alongside
##aneously
confident
phill
engaging
jobe
consul
consists
conspire
consignment
barely
barren
seema
seemed
violently
wellington
lawless
searched
artagn
finest
finland
goods
militant
passion
rohit
roosevel
experien
bosses
creator
convoy
generals
bands
petr
petrovich
appl
chest
cheap
edgar
wrapped
bankrupt
winley
##ondo
##onda
##egation
hoped
tara
opera
operating
democratic
arrange
##berspace
specially
presidential
farming
magaz
##ologists
depart
depend
collection
goddess
macha
machinations
machiavell
racer
racial
racism
virgin
metro
millenn
instruction
piloted
restrict
richie
spacecraft
bombs
bombers
##lemen
study
studies
reggie
firefighter
firearms
##luded
explains
grew
accidents
drej
conned
benn
benyon
mercy
visions
donor
jefty
mutate
norway
norris
matches
motive
motocross
solid
encrypt
included
laura
entity
goldmember
goldfinger
romantically
##isticated
finale
standoff
immoral
immunity
glow
snip
opened
opium
##board
208
205
elev
eleph
mori
##unta
delegation
maxwell
continuation
liang
naturally
ramona
advice
advance
advised
advancing
christopher
pursuers
failure
##ovic
##ovak
##beau
##boro
servant
horribly
##kyard
effic
promised
promoted
prominent
promptly
shares
shared
sharad
185
182
square
##people
exposed
exposure
defends
sometime
psycho
psychological
psychiatr
ears
##etto
combine
await
piran
rene
strives
revived
burt
cyrus
cyberspace
femme
malarek
malfun
malmedy
turbo
severely
seconds
unfolds
communicate
communication
avila
available
calm
calam
foiled
impressive
extent
homeland
homuncul
impul
impending
differences
figuring
rocker
walks
transformation
gained
alexi
duties
irr
pup
puzz
handsome
distance
georg
employs
employed
employers
employment
erast
eragon
error
ersk
eradicate
gaming
gamble
mcfly
##inja
historic
principal
collar
collins
budget
eyed
footage
footiya
##isingh
smuggle
smuggled
smuggler
borg
battery
chauff
chaucer
##ushu
cases
casey
casual
twins
remainder
holcro
troopers
flew
silence
refusing
babylon
receiving
developing
developers
ideals
bullies
savina
covering
brenda
numerous
thoughts
recovers
constable
constructed
##annes
##eddy
stays
2009
mainland
grandson
castor
payne
rapists
##force
hijacking
normandy
pauline
summ
boarding
previously
denis
denmark
dennis
latvian
lower
lots
lotus
inhabited
address
1996
1997
demanding
aston
narrow
speaks
leadership
experimenting
bodyguards
judg
judah
mortes
mortadel
execute
executed
teachers
designs
1942
presented
supported
programmed
european
baja
baxter
baadsh
cleve
domino
hamilton
hamunaptra
pairs
undesir
chooses
hanzou
juice
juven
punishing
punisher
ranch
tango
marshals
avoids
fields
juliet
julius
laser
excitement
accepting
controlling
possesses
raghu
buster
busted
fantas
gabbar
moments
##uffs
containing
carlsen
eddy
perfectly
dedh
emergency
links
package
signal
unsp
1984
contracted
illicit
159
lifetime
lucas
lucrative
toretto
wiping
admits
precinct
eliminating
physician
victorian
biblical
muir
messages
siren
views
##netic
supre
disguised
disguises
partnership
contestants
fleeing
banovic
funny
hideous
porthos
zeke
statues
##ophical
conquest
conquered
shouldn
suitcase
exception
spirits
1970s
slayers
drifting
affairs
eponymous
ethnic
eighteen
mira
versions
replace
replacement
request
spending
apocalypse
cleaning
dumbo
dumping
dumped
rodrig
rollins
winds
##leton
deceit
predec
predator
assumed
closing
imaginary
roberta
strengths
16th
1601
airline
jillucia
ravi
ursula
##manship
debts
concent
decline
acquainted
philos
snowy
motorcycl
bowery
dougl
garber
garrison
widowed
wallace
##gli
##uously
troubles
decidedly
funding
obtaining
basically
folk
deception
chandrach
##ulously
quarantine
prepared
industrialist
montgom
chemist
liberal
liberate
dominate
israeli
gorgon
panama
randall
saber
##strong
alternative
athos
intrigues
recorded
belonged
subjects
explorers
turkish
gabriela
customs
etc
fabulous
jaisingh
junkyard
naboo
soleil
tablet
totally
arabian
spartacus
grimm
evolved
scanner
##ographic
1953
sidekicks
spiritual
azazel
divers
felix
hybrid
hawaii
ladies
ladder
tsubag
##jacks
##armed
bean1
bean2
reverse
terminal
humiliated
education
educational
breathing
breathless
vehicles
commercials
1375
kicking
october
pushed
riot
utopian
ishwar
neutron
shatter
intentions
introduces
assembles
associated
associates
peasant
amidst
amidala
ellen
swimmer
volunteer
portrayed
augustus
cherry
fascist
literary
osborne
taiwan
tougher
healthy
manhunt
expecting
maiden
weakness
endangered
skeleton
skeletor
titanic
sleeping
accomplice
aeon
bleeding
cube
cuban
fitzh
lycan
nandu
padme
siber
sawaki
tactical
wandering
outfit
##umbered
graveyard
disgrace
adversity
adaptation
colombia
coffin
permission
brigades
1860s
cybertr
announces
mercilessly
##laimed
divorced
rapidly
telepathic
scorpion
scorpio
eruption
kendricks
rs1
riki
riker
prosper
chamber
chambers
bronx
uncon
crisis
items
dislike
proceeds
mahoney
rafting
briefly
benefits
oppressive
irresist
irresponsible
additional
punishment
adoptive
embarrassing
jewelry
sympathy
culprit
culprits
language
beset
cortez
dusty
hazzard
iceland
pardes
roland
rifles
sherry
tibetan
vulcan
vendor
yellowstone
reaction
alaskan
tromaville
hermann
aggressive
lovely
mannered
crucial
beckett
marlboro
parente
townspeople
appointed
tombstone
turbulent
executioner
matthews
disciples
symbolically
culminates
athletic
siddhant
shogunate
borders
cedar
diana
dwarf
easily
eastern
gentle
suggests
tattoo
vidocq
##ranean
thermop
repeated
fraternal
chalmers
chimera
uninhab
enzymes
manjidani
abbas
evacuate
sheikh
undertake
ammunitions
reclusive
protagonist
sydney
werewolf
magnate
supporters
hardships
typical
ambulance
resurrected
extravagant
guerrilla
cottonmouth
vladimir
dixit
hapless
hattori
hoover
kaneda
kolchin
kahn
lancelot
moldavia
panther
penniless
seduct
taste
tubbs
##martin
inheritance
heinrich
forsakes
conclusion
unprecedented
grudge
coerced
indestructible
remnants
remembers
freezing
sneaks
awaits
ernst
mckenna
chauhan
salvage
supersold
hurricane
temperamental
tyrannical
alysia
april
bmw
barnes
bengalla
cangace
czech
dwind
dallas
dazey
dinesh
eugene
fudoh
friday
gideon
garner
gaskell
horses
ireland
jousting
jageera
jensen
jupiter
klaus
kobakov
korso
lithuan
lumberjacks
mowgli
mchale
mouthed
mihai
nageshwar
ritual
ropes
rhodes
xerxes
yugosl
##ylae
anderton
##asimman
isabella
tropical
chagrin
chancellor
leprechaun
neelakandan
arsenal
congress
plethora
shovel
unoffic
manickam
crazed
crockett
splinter
disparate
dishonest
marooned
imminent
strahinja
prehistoric
gennesuke
schmidt
miniatur
idyllic
artagnan
roosevelt
machiavellian
instructions
restricted
psychiatrist
homunculus
georgia
holcroft
mortadelo
baadshah
douglas
chandrachur
montgomery
tsubagakure
fitzhugh
thermopylae
26
29
35
4th
6b
80s
90
9th
ay
aer
ale
aks
aali
aurel
bis
bou
bain
bell
bia
bite
bible
bought
bests
bedding
b13
cd
core
cree
cair
cup
caine
dome
dort
dose
darn
dual
dumb
dern
dsp
dheer
ecl
fet
fop
fand
fong
file
fash
fool
feng
funk
ghe
ged
gop
gif
gree
gail
gib
grid
gotten
gender
hut
hay
hab
hated
hann
hidal
hilar
hogs
io
icy
ivan
ivy
jr
jos
jaw
jury
jama
june
jersey
jenson
jigs
kon
kor
kus
kum
kour
kai
kale
kaul
khal
kiler
kondo
kuffs
ler
lur
lun
lod
lall
lung
lah
liver
lured
lyn
leland
laced
linda
luther
lolo
mit
mul
mack
mend
moss
mish
mose
mits
mere
mator
mole
macy
muk
mva
mouth
nom
nash
niel
nights
nails
nadu
nagle
nanny
nancy
noguchi
og
ori
opt
oath
pt
pin
pes
pod
pist
pug
pum
patt
pitt
pitting
panda
pym
pocket
pengu
rat
raw
rite
rift
som
sce
sug
sail
sits
sake
sailing
sarek
saints
session
tu
tir
tus
tend
tree
tied
tint
tune
tearing
tux
vit
vain
veng
vince
vatic
vital
vowing
wide
wick
wai
wool
wond
wushu
y2
yor
yad
yach
zao
zeta
##oja
##nast
##numbered
##gf
##gor
##gal
##gent
##gian
##gage
##gman
##grid
##ua
##uy
##uid
##uber
##uals
##ei
##eh
##eur
##eem
##ege
##ecc
##afe
##rac
##rot
##rust
##rav
##rical
##rimin
##raint
##iot
##iem
##iary
##iating
##mand
##macy
##munder
##muda
##makers
##lv
##low
##lest
##lings
##like
##loo
##lasses
##san
##sene
##yapp
##yah
##yton
##fol
##fies
##fore
##face
##fere
##fires
##car
##cel
##cile
##cans
##cious
##cade
##cise
##casts
##tt
##tw
##tit
##ture
##tec
##tty
##thes
##taking
##hu
##hay
##hand
##hart
##hole
##huan
##hrick
##bop
##bus
##bast
##bec
##buck
##bane
##bator
##belly
##bella
##do
##die
##date
##je
##jin
##jand
##jia
##vd
##vre
##vig
##vast
##vala
##vansh
##zi
##zel
##xo
##xton
##xistent
##pter
##pack
##piece
##kan
##kward
##kata
##kurah
##wen
##west
##want
##water
##wara
##wicky
##30
##40s
theatr
##erm
##erank
##ergart
##init
##inction
##inies
##inath
##inqu
##inable
##ndich
##oned
##esome
##anza
##orin
##oration
##orian
##orage
##orph
